{"version":"1.0","truncation":null,"padding":null,"added_tokens":[{"id":0,"content":"<pad>","single_word":false,"lstrip":false,"rstrip":false,"normalized":false,"special":true},{"id":1,"content":"<bos>","single_word":false,"lstrip":false,"rstrip":false,"normalized":false,"special":true},{"id":2,"content":"<eot>","single_word":false,"lstrip":false,"rstrip":false,"normalized":false,"special":true},{"id":3,"content":"<soa>","single_word":false,"lstrip":false,"rstrip":false,"normalized":false,"special":true},{"id":4,"content":"<slot>","single_word":false,"lstrip":false,"rstrip":false,"normalized":false,"special":true},{"id":5,"content":"<eoa>","single_word":false,"lstrip":false,"rstrip":false,"normalized":false,"special":true},{"id":6,"content":"<en>","single_word":false,"lstrip":false,"rstrip":false,"normalized":false,"special":true},{"id":7,"content":"<vi>","single_word":false,"lstrip":false,"rstrip":false,"normalized":false,"special":true},{"id":8,"content":"<unk>","single_word":false,"lstrip":false,"rstrip":false,"normalized":false,"special":true}],"normalizer":{"type":"Sequence","normalizers":[{"type":"NFC"},{"type":"Replace","pattern":{"Regex":"\\s+"},"content":" "}]},"pre_tokenizer":{"type":"Sequence","pretokenizers":[{"type":"Split","pattern":{"Regex":"\\s+"},"behavior":"Isolated","invert":false},{"type":"Punctuation","behavior":"Isolated"},{"type":"Digits","individual_digits":true}]},"post_processor":null,"decoder":{"type":"Fuse"},"model":{"type":"BPE","dropout":null,"unk_token":"<unk>","continuing_subword_prefix":null,"end_of_word_suffix":null,"fuse_unk":false,"byte_fallback":false,"ignore_merges":false,"vocab":{"<pad>":0,"<bos>":1,"<eot>":2,"<soa>":3,"<slot>":4,"<eoa>":5,"<en>":6,"<vi>":7,"<unk>":8," ":9,"!":10,"\"":11,"#":12,"$":13,"%":14,"&":15,"'":16,"(":17,")":18,"*":19,"+":20,",":21,"-":22,".":23,"/":24,"0":25,"1":26,"2":27,"3":28,"4":29,"5":30,"6":31,"7":32,"8":33,"9":34,":":35,";":36,"<":37,"=":38,">":39,"?":40,"@":41,"A":42,"B":43,"C":44,"D":45,"E":46,"F":47,"G":48,"H":49,"I":50,"J":51,"K":52,"L":53,"M":54,"N":55,"O":56,"P":57,"Q":58,"R":59,"S":60,"T":61,"U":62,"V":63,"W":64,"X":65,"Y":66,"Z":67,"[":68,"\\":69,"]":70,"^":71,"_":72,"`":73,"a":74,"b":75,"c":76,"d":77,"e":78,"f":79,"g":80,"h":81,"i":82,"j":83,"k":84,"l":85,"m":86,"n":87,"o":88,"p":89,"q":90,"r":91,"s":92,"t":93,"u":94,"v":95,"w":96,"x":97,"y":98,"z":99,"{":100,"|":101,"}":102,"~":103,"£":104,"§":105,"ª":106,"®":107,"°":108,"·":109,"»":110,"À":111,"Á":112,"Â":113,"Ã":114,"È":115,"É":116,"Ê":117,"Ì":118,"Í":119,"Ò":120,"Ó":121,"Ô":122,"Õ":123,"×":124,"Ù":125,"Ú":126,"Ý":127,"à":128,"á":129,"â":130,"ã":131,"è":132,"é":133,"ê":134,"ì":135,"í":136,"ò":137,"ó":138,"ô":139,"õ":140,"ö":141,"ù":142,"ú":143,"ü":144,"ý":145,"ā":146,"Ă":147,"ă":148,"Đ":149,"đ":150,"Ĩ":151,"ĩ":152,"Ũ":153,"ũ":154,"Ơ":155,"ơ":156,"Ư":157,"ư":158,"ɦ":159,"ɴ":160,"α":161,"Г":162,"б":163,"и":164,"м":165,"н":166,"п":167,"т":168,"ᴄ":169,"ᴜ":170,"Ạ":171,"ạ":172,"Ả":173,"ả":174,"Ấ":175,"ấ":176,"Ầ":177,"ầ":178,"Ẩ":179,"ẩ":180,"Ẫ":181,"ẫ":182,"Ậ":183,"ậ":184,"Ắ":185,"ắ":186,"Ằ":187,"ằ":188,"Ẳ":189,"ẳ":190,"Ẵ":191,"ẵ":192,"Ặ":193,"ặ":194,"Ẹ":195,"ẹ":196,"Ẻ":197,"ẻ":198,"Ẽ":199,"ẽ":200,"Ế":201,"ế":202,"Ề":203,"ề":204,"Ể":205,"ể":206,"Ễ":207,"ễ":208,"Ệ":209,"ệ":210,"Ỉ":211,"ỉ":212,"Ị":213,"ị":214,"Ọ":215,"ọ":216,"Ỏ":217,"ỏ":218,"Ố":219,"ố":220,"Ồ":221,"ồ":222,"Ổ":223,"ổ":224,"Ỗ":225,"ỗ":226,"Ộ":227,"ộ":228,"Ớ":229,"ớ":230,"Ờ":231,"ờ":232,"Ở":233,"ở":234,"Ỡ":235,"ỡ":236,"Ợ":237,"ợ":238,"Ụ":239,"ụ":240,"Ủ":241,"ủ":242,"Ứ":243,"ứ":244,"Ừ":245,"ừ":246,"Ử":247,"ử":248,"Ữ":249,"ữ":250,"Ự":251,"ự":252,"Ỳ":253,"ỳ":254,"Ỵ":255,"ỵ":256,"Ỷ":257,"ỷ":258,"Ỹ":259,"ỹ":260,"–":261,"—":262,"•":263,"…":264,"™":265,"�":266,"th":267,"ng":268,"an":269,"the":270,"re":271,"ou":272,"at":273,"in":274,"on":275,"ch":276,"nh":277,"er":278,"to":279,"ing":280,"en":281,"is":282,"al":283,"it":284,"st":285,"or":286,"and":287,"tr":288,"of":289,"ed":290,"as":291,"ar":292,"you":293,"es":294,"he":295,"le":296,"li":297,"me":298,"ow":299,"that":300,"kh":301,"ay":302,"se":303,"ke":304,"be":305,"ti":306,"ve":307,"ly":308,"hi":309,"ha":310,"ro":311,"we":312,"gi":313,"ông":314,"ph":315,"là":316,"ll":317,"so":318,"ac":319,"ot":320,"qu":321,"ên":322,"like":323,"gh":324,"id":325,"nd":326,"wh":327,"ic":328,"co":329,"for":330,"ver":331,"và":332,"ut":333,"ld":334,"lo":335,"ườ":336,"was":337,"ent":338,"cá":339,"có":340,"ion":341,"wi":342,"ra":343,"now":344,"do":345,"go":346,"au":347,"out":348,"ge":349,"de":350,"uy":351,"Th":352,"ab":353,"ri":354,"am":355,"ột":356,"củ":357,"ới":358,"của":359,"are":360,"ght":361,"ượ":362,"ất":363,"ta":364,"this":365,"one":366,"mo":367,"ust":368,"ình":369,"all":370,"con":371,"know":372,"The":373,"pe":374,"ne":375,"su":376,"ại":377,"một":378,"ad":379,"And":380,"ir":381,"iệ":382,"with":383,"ce":384,"ười":385,"they":386,"ho":387,"ết":388,"have":389,"fe":390,"cho":391,"ma":392,"ày":393,"ong":394,"ally":395,"ter":396,"od":397,"te":398,"ôi":399,"ến":400,"ược":401,"just":402,"us":403,"ould":404,"if":405,"un":406,"can":407,"not":408,"được":409,"sa":410,"ều":411,"ân":412,"ạn":413,"pro":414,"what":415,"ea":416,"op":417,"ững":418,"ần":419,"So":420,"ur":421,"com":422,"but":423,"pl":424,"ther":425,"em":426,"như":427,"some":428,"đi":429,"các":430,"ant":431,"uh":432,"bi":433,"ers":434,"get":435,"anh":436,"up":437,"ink":438,"ải":439,"ok":440,"ướ":441,"ươ":442,"thể":443,"ấy":444,"ex":445,"here":446,"po":447,"với":448,"il":449,"It":450,"ate":451,"my":452,"our":453,"này":454,"ang":455,"ind":456,"ác":457,"ul":458,"nó":459,"your":460,"ess":461,"sh":462,"im":463,"very":464,"ause":465,"ây":466,"đã":467,"ack":468,"You":469,"wor":470,"inh":471,"res":472,"bạn":473,"mà":474,"tion":475,"man":476,"đó":477,"để":478,"ũng":479,"ck":480,"Ch":481,"ard":482,"vi":483,"ường":484,"rom":485,"way":486,"uố":487,"no":488,"ts":489,"tu":490,"hiệ":491,"ành":492,"don":493,"ment":494,"ước":495,"nhi":496,"khi":497,"sẽ":498,"from":499,"ương":500,"thì":501,"ời":502,"úng":503,"ca":504,"cũng":505,"ầu":506,"per":507,"ol":508,"àng":509,"ực":510,"ga":511,"cả":512,"had":513,"pp":514,"lại":515,"ức":516,"tôi":517,"art":518,"mình":519,"end":520,"àn":521,"độ":522,"el":523,"chi":524,"ài":525,"na":526,"by":527,"ity":528,"We":529,"làm":530,"ận":531,"ơn":532,"họ":533,"đến":534,"um":535,"ear":536,"ople":537,"then":538,"red":539,"ật":540,"ùng":541,"his":542,"ai":543,"fo":544,"got":545,"when":546,"si":547,"ci":548,"were":549,"say":550,"He":551,"ản":552,"ính":553,"Nh":554,"eah":555,"ven":556,"cái":557,"lu":558,"ct":559,"them":560,"phải":561,"ăng":562,"own":563,"ight":564,"ine":565,"ào":566,"more":567,"who":568,"vào":569,"di":570,"king":571,"ast":572,"từ":573,"bo":574,"ound":575,"ền":576,"ối":577,"ty":578,"ki":579,"did":580,"về":581,"bec":582,"time":583,"ăm":584,"ough":585,"số":586,"ồi":587,"ung":588,"ếu":589,"any":590,"ăn":591,"ort":592,"whi":593,"ide":594,"want":595,"But":596,"Uh":597,"việ":598,"ằng":599,"át":600,"That":601,"sự":602,"òn":603,"ngh":604,"âu":605,"ren":606,"wo":607,"how":608,"et":609,"him":610,"back":611,"Wh":612,"ao":613,"ous":614,"ep":615,"day":616,"chỉ":617,"việc":618,"tor":619,"công":620,"fi":621,"êu":622,"reat":623,"look":624,"will":625,"guy":626,"ions":627,"Yeah":628,"ồng":629,"mean":630,"nói":631,"has":632,"úc":633,"sp":634,"ái":635,"Tr":636,"đầu":637,"ist":638,"year":639,"tho":640,"off":641,"see":642,"play":643,"tal":644,"ings":645,"itt":646,"áng":647,"gon":648,"mu":649,"bị":650,"been":651,"ích":652,"good":653,"ber":654,"ắc":655,"hơn":656,"ắt":657,"over":658,"ục":659,"om":660,"rất":661,"ữa":662,"ag":663,"thế":664,"able":665,"into":666,"ách":667,"ổi":668,"ập":669,"bu":670,"ple":671,"ree":672,"ite":673,"du":674,"gì":675,"ôn":676,"âm":677,"thi":678,"còn":679,"est":680,"đị":681,"thấy":682,"trên":683,"ặt":684,"ưa":685,"ẫn":686,"she":687,"They":688,"án":689,"In":690,"ội":691,"Li":692,"said":693,"than":694,"ặc":695,"und":696,"nên":697,"nào":698,"òng":699,"nhà":700,"ble":701,"hiện":702,"hai":703,"her":704,"work":705,"ậy":706,"ace":707,"stu":708,"pre":709,"kind":710,"gr":711,"uyệ":712,"dụ":713,"ộc":714,"ạo":715,"ánh":716,"ies":717,"ơi":718,"lot":719,"tiế":720,"thu":721,"ick":722,"ill":723,"iện":724,"biết":725,"ap":726,"ting":727,"ff":728,"oun":729,"nhất":730,"động":731,"ảo":732,"ển":733,"dis":734,"cách":735,"ass":736,"cu":737,"irst":738,"two":739,"tic":740,"ans":741,"ứng":742,"mat":743,"sau":744,"iệt":745,"điều":746,"ever":747,"cần":748,"quan":749,"ice":750,"need":751,"pr":752,"thr":753,"ểu":754,"ving":755,"tri":756,"age":757,"áp":758,"down":759,"Ng":760,"Ph":761,"well":762,"áo":763,"lên":764,"ngày":765,"học":766,"ain":767,"ượng":768,"make":769,"năm":770,"also":771,"rồi":772,"ru":773,"khác":774,"come":775,"new":776,"ob":777,"gu":778,"may":779,"tin":780,"ốt":781,"dụng":782,"ống":783,"ắn":784,"This":785,"put":786,"êm":787,"even":788,"ody":789,"nhân":790,"litt":791,"ểm":792,"try":793,"ưng":794,"ọi":795,"đây":796,"gn":797,"gain":798,"spe":799,"act":800,"ase":801,"most":802,"la":803,"cùng":804,"quy":805,"bet":806,"sel":807,"uốn":808,"đang":809,"ated":810,"theo":811,"thời":812,"mới":813,"ạnh":814,"Kh":815,"ves":816,"let":817,"ấp":818,"ish":819,"uyện":820,"vì":821,"int":822,"ence":823,"dif":824,"pos":825,"fu":826,"thực":827,"định":828,"br":829,"nước":830,"cô":831,"fore":832,"ấn":833,"body":834,"ỏi":835,"ạt":836,"tim":837,"ry":838,"Like":839,"read":840,"does":841,"ord":842,"tại":843,"af":844,"ưở":845,"vậy":846,"ary":847,"What":848,"rong":849,"actu":850,"ance":851,"ọng":852,"iz":853,"ưởng":854,"gia":855,"comm":856,"its":857,"much":858,"ning":859,"ive":860,"qua":861,"uyên":862,"inc":863,"wat":864,"ìn":865,"ợp":866,"rent":867,"cơ":868,"ach":869,"game":870,"min":871,"cảm":872,"pres":873,"nghĩ":874,"kho":875,"ps":876,"ful":877,"par":878,"hay":879,"take":880,"ure":881,"hợp":882,"hàng":883,"only":884,"happ":885,"call":886,"giờ":887,"gra":888,"lớ":889,"nhận":890,"sc":891,"tự":892,"ah":893,"uhm":894,"ef":895,"ọn":896,"show":897,"ấu":898,"sinh":899,"muốn":900,"feel":901,"rest":902,"If":903,"rằng":904,"ways":905,"port":906,"Uhm":907,"too":908,"hình":909,"ved":910,"ser":911,"ew":912,"cess":913,"ec":914,"Gi":915,"út":916,"đồng":917,"ảng":918,"didn":919,"No":920,"ịch":921,"Tôi":922,"sao":923,"real":924,"năng":925,"self":926,"fin":927,"tur":928,"mặt":929,"ak":930,"ỗi":931,"des":932,"ừa":933,"big":934,"ệnh":935,"long":936,"ồn":937,"cl":938,"bit":939,"Và":940,"lý":941,"sống":942,"side":943,"hel":944,"ắng":945,"cao":946,"ens":947,"vẫn":948,"als":949,"Oh":950,"ms":951,"ents":952,"ám":953,"ửa":954,"mon":955,"úp":956,"talk":957,"quá":958,"tới":959,"gian":960,"part":961,"gen":962,"ừng":963,"low":964,"xu":965,"lear":966,"use":967,"phát":968,"pers":969,"med":970,"lat":971,"nữa":972,"bằng":973,"ươi":974,"sy":975,"ni":976,"many":977,"hành":978,"đối":979,"tâm":980,"ue":981,"tain":982,"ẳng":983,"coun":984,"tiếp":985,"mer":986,"tình":987,"av":988,"ba":989,"ical":990,"tra":991,"ảm":992,"ạng":993,"sure":994,"lic":995,"ốc":996,"mi":997,"sto":998,"quả":999,"uống":1000,"guys":1001,"Al":1002,"bản":1003,"men":1004,"ev":1005,"run":1006,"oh":1007,"cứ":1008,"giúp":1009,"life":1010,"vị":1011,"fuck":1012,"Qu":1013,"xt":1014,"tay":1015,"mar":1016,"mem":1017,"enti":1018,"bl":1019,"lớn":1020,"ngo":1021,"ek":1022,"đều":1023,"chị":1024,"bab":1025,"dự":1026,"giá":1027,"bas":1028,"nhìn":1029,"ậu":1030,"att":1031,"trở":1032,"Ho":1033,"gy":1034,"ft":1035,"sử":1036,"land":1037,"cer":1038,"tạo":1039,"thứ":1040,"cuộc":1041,"toàn":1042,"tốt":1043,"ìm":1044,"bên":1045,"last":1046,"ạch":1047,"car":1048,"nhau":1049,"ảnh":1050,"khó":1051,"ason":1052,"Ok":1053,"ầm":1054,"tell":1055,"thân":1056,"ẩm":1057,"Một":1058,"phần":1059,"used":1060,"kết":1061,"Well":1062,"lúc":1063,"bảo":1064,"less":1065,"why":1066,"Anh":1067,"bao":1068,"thức":1069,"điểm":1070,"mis":1071,"ards":1072,"mọi":1073,"nay":1074,"viên":1075,"high":1076,"help":1077,"áy":1078,"air":1079,"week":1080,"ari":1081,"tính":1082,"team":1083,"ởi":1084,"vers":1085,"hoặc":1086,"Okay":1087,"set":1088,"ướng":1089,"eaah":1090,"same":1091,"col":1092,"cent":1093,"tory":1094,"turn":1095,"sur":1096,"ọc":1097,"cond":1098,"comp":1099,"đo":1100,"lần":1101,"yêu":1102,"bộ":1103,"nếu":1104,"Có":1105,"ãy":1106,"made":1107,"fun":1108,"nat":1109,"ảy":1110,"óng":1111,"mẹ":1112,"find":1113,"ợi":1114,"Do":1115,"hu":1116,"đề":1117,"inte":1118,"ss":1119,"ense":1120,"ank":1121,"hiệu":1122,"tìm":1123,"ắm":1124,"bệnh":1125,"kes":1126,"ano":1127,"Ti":1128,"ẩn":1129,"ces":1130,"ia":1131,"An":1132,"ễn":1133,"cur":1134,"chưa":1135,"vide":1136,"head":1137,"lực":1138,"sản":1139,"tác":1140,"ốn":1141,"ạc":1142,"vel":1143,"line":1144,"Nếu":1145,"old":1146,"cal":1147,"loại":1148,"ris":1149,"num":1150,"thou":1151,"hand":1152,"ates":1153,"phí":1154,"chất":1155,"dùng":1156,"les":1157,"ask":1158,"áu":1159,"went":1160,"tive":1161,"uốc":1162,"add":1163,"luôn":1164,"cial":1165,"clo":1166,"tư":1167,"How":1168,"ash":1169,"sing":1170,"xuất":1171,"ig":1172,"tiền":1173,"dân":1174,"pu":1175,"ball":1176,"hết":1177,"che":1178,"kinh":1179,"chí":1180,"hội":1181,"ami":1182,"ộng":1183,"came":1184,"bắt":1185,"yeah":1186,"ặp":1187,"ten":1188,"dư":1189,"next":1190,"give":1191,"giới":1192,"ưu":1193,"Nam":1194,"love":1195,"hỏi":1196,"oney":1197,"bất":1198,"thị":1199,"book":1200,"hiệp":1201,"She":1202,"lời":1203,"thật":1204,"vis":1205,"chủ":1206,"care":1207,"mắt":1208,"cat":1209,"stem":1210,"aw":1211,"cầu":1212,"Khi":1213,"ôm":1214,"app":1215,"ầy":1216,"ins":1217,"chu":1218,"hiểu":1219,"list":1220,"pt":1221,"ys":1222,"giải":1223,"vừa":1224,"pret":1225,"tế":1226,"thêm":1227,"val":1228,"cy":1229,"mil":1230,"ors":1231,"pháp":1232,"óa":1233,"When":1234,"xem":1235,"St":1236,"ath":1237,"ouse":1238,"gan":1239,"cour":1240,"alth":1241,"ular":1242,"arch":1243,"ons":1244,"Now":1245,"inst":1246,"tiêu":1247,"trị":1248,"ner":1249,"uối":1250,"mang":1251,"hệ":1252,"tổ":1253,"đổi":1254,"peri":1255,"Is":1256,"câu":1257,"keep":1258,"stud":1259,"ise":1260,"phi":1261,"ẹp":1262,"top":1263,"ét":1264,"liệ":1265,"tập":1266,"fr":1267,"đại":1268,"uyền":1269,"cr":1270,"óc":1271,"vụ":1272,"cấp":1273,"home":1274,"tiên":1275,"fri":1276,"hard":1277,"best":1278,"dra":1279,"hoàn":1280,"tăng":1281,"okay":1282,"bà":1283,"pow":1284,"sức":1285,"cus":1286,"Các":1287,"trẻ":1288,"nhỏ":1289,"ấm":1290,"lt":1291,"ced":1292,"chọn":1293,"vô":1294,"hip":1295,"thủ":1296,"Con":1297,"cast":1298,"xe":1299,"sáng":1300,"ress":1301,"such":1302,"lie":1303,"four":1304,"For":1305,"ild":1306,"đánh":1307,"To":1308,"lar":1309,"lec":1310,"done":1311,"sive":1312,"biệt":1313,"ture":1314,"nghe":1315,"tài":1316,"bre":1317,"Re":1318,"mươi":1319,"Việt":1320,"cre":1321,"sm":1322,"Ro":1323,"khu":1324,"uyển":1325,"pri":1326,"As":1327,"nghi":1328,"each":1329,"wa":1330,"itu":1331,"vật":1332,"bro":1333,"ond":1334,"thay":1335,"led":1336,"fami":1337,"ếm":1338,"ger":1339,"kỳ":1340,"phẩm":1341,"scho":1342,"ited":1343,"iệu":1344,"win":1345,"vấn":1346,"mạnh":1347,"aren":1348,"đâu":1349,"ếp":1350,"sub":1351,"lòng":1352,"sim":1353,"cted":1354,"lit":1355,"kill":1356,"bỏ":1357,"ween":1358,"ít":1359,"vid":1360,"eld":1361,"ngay":1362,"Đi":1363,"gặp":1364,"hóa":1365,"liên":1366,"ton":1367,"kế":1368,"tất":1369,"sign":1370,"jo":1371,"ạy":1372,"ign":1373,"từng":1374,"bé":1375,"rec":1376,"ket":1377,"velo":1378,"ứa":1379,"supp":1380,"lấy":1381,"form":1382,"ird":1383,"erst":1384,"away":1385,"máy":1386,"plan":1387,"cor":1388,"view":1389,"ames":1390,"da":1391,"liệu":1392,"Nó":1393,"ạm":1394,"đời":1395,"pi":1396,"dri":1397,"Sau":1398,"sort":1399,"đẹp":1400,"bình":1401,"trí":1402,"dễ":1403,"rõ":1404,"ici":1405,"dẫn":1406,"nơi":1407,"đưa":1408,"cou":1409,"ars":1410,"Bec":1411,"thôi":1412,"ened":1413,"ute":1414,"lead":1415,"đúng":1416,"cri":1417,"kid":1418,"tích":1419,"sho":1420,"both":1421,"leg":1422,"sách":1423,"Bạn":1424,"bus":1425,"def":1426,"ster":1427,"ắp":1428,"ends":1429,"char":1430,"biến":1431,"qui":1432,"llow":1433,"cle":1434,"word":1435,"dec":1436,"Br":1437,"bad":1438,"ince":1439,"mất":1440,"vu":1441,"ếc":1442,"far":1443,"fac":1444,"ness":1445,"Lo":1446,"few":1447,"ific":1448,"Co":1449,"move":1450,"stru":1451,"Mo":1452,"pay":1453,"ằm":1454,"lã":1455,"ters":1456,"iệm":1457,"reg":1458,"uyết":1459,"Go":1460,"cra":1461,"mỗi":1462,"room":1463,"ép":1464,"dịch":1465,"giảm":1466,"five":1467,"pat":1468,"wr":1469,"bài":1470,"hắn":1471,"Be":1472,"shit":1473,"đơn":1474,"blo":1475,"màu":1476,"eas":1477,"đủ":1478,"tuổi":1479,"ỉnh":1480,"càng":1481,"mind":1482,"erat":1483,"cool":1484,"son":1485,"Chi":1486,"chân":1487,"sha":1488,"sion":1489,"điện":1490,"chế":1491,"đất":1492,"Thi":1493,"hoạt":1494,"gần":1495,"chức":1496,"war":1497,"mp":1498,"ange":1499,"exam":1500,"gọi":1501,"ese":1502,"tham":1503,"trăm":1504,"says":1505,"Để":1506,"sát":1507,"ones":1508,"nu":1509,"wal":1510,"cap":1511,"Amer":1512,"cam":1513,"cons":1514,"giữa":1515,"vol":1516,"Let":1517,"tục":1518,"ban":1519,"chơi":1520,"đặc":1521,"cảnh":1522,"phụ":1523,"else":1524,"lập":1525,"tow":1526,"ềm":1527,"hiệm":1528,"ặng":1529,"đặt":1530,"seem":1531,"je":1532,"ush":1533,"đình":1534,"cây":1535,"main":1536,"ón":1537,"báo":1538,"card":1539,"sed":1540,"ãi":1541,"Là":1542,"dat":1543,"All":1544,"fact":1545,"Just":1546,"fa":1547,"bởi":1548,"Thì":1549,"hãy":1550,"khả":1551,"tên":1552,"deal":1553,"mua":1554,"name":1555,"nam":1556,"lợi":1557,"giao":1558,"sĩ":1559,"gre":1560,"ey":1561,"eral":1562,"dài":1563,"dưới":1564,"ks":1565,"chú":1566,"face":1567,"phân":1568,"ậm":1569,"xác":1570,"gây":1571,"nữ":1572,"pass":1573,"seen":1574,"ory":1575,"De":1576,"My":1577,"cửa":1578,"dù":1579,"gg":1580,"tech":1581,"địa":1582,"dude":1583,"wasn":1584,"abil":1585,"left":1586,"Vì":1587,"tre":1588,"fect":1589,"phía":1590,"hear":1591,"os":1592,"test":1593,"ross":1594,"saw":1595,"giả":1596,"exp":1597,"ched":1598,"rang":1599,"job":1600,"đồ":1601,"ants":1602,"Or":1603,"khí":1604,"lion":1605,"ựa":1606,"thần":1607,"case":1608,"bước":1609,"Un":1610,"On":1611,"goes":1612,"Tuy":1613,"mor":1614,"hôm":1615,"đạo":1616,"cks":1617,"Some":1618,"hal":1619,"oc":1620,"Nguy":1621,"cứu":1622,"Mi":1623,"Se":1624,"buy":1625,"vir":1626,"ulat":1627,"tử":1628,"ste":1629,"cố":1630,"ned":1631,"stre":1632,"Em":1633,"ump":1634,"pa":1635,"cổ":1636,"êng":1637,"hy":1638,"live":1639,"Ông":1640,"One":1641,"fec":1642,"ny":1643,"bán":1644,"net":1645,"kiến":1646,"Jo":1647,"Tu":1648,"mở":1649,"tinh":1650,"Alri":1651,"xã":1652,"New":1653,"nor":1654,"hoa":1655,"Ma":1656,"chết":1657,"ics":1658,"ark":1659,"bàn":1660,"cli":1661,"toge":1662,"yếu":1663,"tors":1664,"ding":1665,"tiến":1666,"chắc":1667,"òa":1668,"trả":1669,"fic":1670,"cha":1671,"ave":1672,"cậu":1673,"ared":1674,"mức":1675,"spec":1676,"took":1677,"hold":1678,"acti":1679,"ze":1680,"pped":1681,"Pe":1682,"rain":1683,"lin":1684,"mes":1685,"str":1686,"chia":1687,"óm":1688,"logy":1689,"resp":1690,"giáo":1691,"por":1692,"gin":1693,"vest":1694,"phục":1695,"told":1696,"pic":1697,"sol":1698,"cực":1699,"mười":1700,"Cô":1701,"til":1702,"once":1703,"half":1704,"days":1705,"hạn":1706,"pick":1707,"ngu":1708,"ale":1709,"nghệ":1710,"Quốc":1711,"stat":1712,"serv":1713,"bed":1714,"lâu":1715,"đấy":1716,"idea":1717,"Đây":1718,"tiết":1719,"open":1720,"issu":1721,"foot":1722,"free":1723,"văn":1724,"food":1725,"ian":1726,"At":1727,"dam":1728,"pod":1729,"hour":1730,"Điều":1731,"adv":1732,"Yes":1733,"grow":1734,"chịu":1735,"gest":1736,"khỏi":1737,"đội":1738,"xa":1739,"gets":1740,"Com":1741,"ont":1742,"chút":1743,"law":1744,"mù":1745,"blem":1746,"must":1747,"kia":1748,"May":1749,"zy":1750,"giữ":1751,"dur":1752,"đau":1753,"row":1754,"ima":1755,"sở":1756,"tối":1757,"pop":1758,"ké":1759,"vui":1760,"ei":1761,"nhớ":1762,"trol":1763,"đáng":1764,"cuối":1765,"grou":1766,"tức":1767,"Can":1768,"dd":1769,"uyệt":1770,"ward":1771,"vệ":1772,"nội":1773,"ĩnh":1774,"pect":1775,"mục":1776,"itch":1777,"kỹ":1778,"noth":1779,"gái":1780,"Pro":1781,"àu":1782,"rese":1783,"bers":1784,"Wi":1785,"won":1786,"ists":1787,"dep":1788,"lls":1789,"Ar":1790,"nổi":1791,"bố":1792,"kiểm":1793,"data":1794,"blic":1795,"rect":1796,"trợ":1797,"Thế":1798,"duc":1799,"dựng":1800,"ted":1801,"fre":1802,"whe":1803,"diện":1804,"uyến":1805,"ỡng":1806,"sợ":1807,"đấu":1808,"qual":1809,"sắc":1810,"ken":1811,"quốc":1812,"đứng":1813,"diễn":1814,"mấy":1815,"Whi":1816,"đầy":1817,"vực":1818,"fort":1819,"vẻ":1820,"tro":1821,"ized":1822,"Vi":1823,"quen":1824,"der":1825,"eat":1826,"hit":1827,"cung":1828,"dro":1829,"ượt":1830,"ices":1831,"Not":1832,"six":1833,"bur":1834,"minh":1835,"ize":1836,"Then":1837,"quân":1838,"ran":1839,"giác":1840,"Với":1841,"ju":1842,"dr":1843,"logi":1844,"bs":1845,"Chỉ":1846,"cau":1847,"ries":1848,"cạnh":1849,"tem":1850,"ject":1851,"lay":1852,"chứ":1853,"sang":1854,"ths":1855,"ling":1856,"xây":1857,"conf":1858,"Bo":1859,"ie":1860,"xin":1861,"wait":1862,"lịch":1863,"kể":1864,"shi":1865,"hộ":1866,"onal":1867,"ago":1868,"ữu":1869,"Đó":1870,"ican":1871,"quý":1872,"gram":1873,"ures":1874,"vari":1875,"vo":1876,"cụ":1877,"inf":1878,"cười":1879,"ls":1880,"viết":1881,"vern":1882,"úi":1883,"tỉnh":1884,"bor":1885,"ẫu":1886,"ener":1887,"obvi":1888,"acc":1889,"ism":1890,"Cho":1891,"Còn":1892,"đàn":1893,"rece":1894,"pur":1895,"quar":1896,"mus":1897,"cost":1898,"lẽ":1899,"hey":1900,"suy":1901,"trời":1902,"ama":1903,"đôi":1904,"key":1905,"kiếm":1906,"cul":1907,"phố":1908,"bốn":1909,"ồm":1910,"Mỹ":1911,"chạy":1912,"ngồi":1913,"Công":1914,"vài":1915,"lled":1916,"món":1917,"non":1918,"quay":1919,"âng":1920,"bal":1921,"ial":1922,"Theo":1923,"đạt":1924,"ows":1925,"pain":1926,"ẩy":1927,"resu":1928,"ngủ":1929,"rat":1930,"dung":1931,"sci":1932,"ties":1933,"fast":1934,"kiện":1935,"sor":1936,"xảy":1937,"cont":1938,"bác":1939,"ped":1940,"ina":1941,"cut":1942,"chín":1943,"anna":1944,"suc":1945,"ital":1946,"nàng":1947,"Car":1948,"knew":1949,"walk":1950,"khá":1951,"ose":1952,"mid":1953,"stay":1954,"dy":1955,"khỏ":1956,"lau":1957,"unch":1958,"pot":1959,"type":1960,"hồi":1961,"bar":1962,"bây":1963,"vợ":1964,"trò":1965,"Hai":1966,"chỗ":1967,"bóng":1968,"ges":1969,"mạng":1970,"tru":1971,"soci":1972,"hỗ":1973,"khỏe":1974,"alle":1975,"nice":1976,"lan":1977,"chan":1978,"true":1979,"prof":1980,"eng":1981,"With":1982,"hope":1983,"ual":1984,"Why":1985,"gir":1986,"rid":1987,"Từ":1988,"Ex":1989,"full":1990,"Ta":1991,"thư":1992,"sk":1993,"lắm":1994,"trái":1995,"Mình":1996,"Du":1997,"Bu":1998,"Hà":1999,"uni":2000,"step":2001,"độc":2002,"lệ":2003,"mul":2004,"outh":2005,"past":2006,"Họ":2007,"que":2008,"nằm":2009,"lưu":2010,"Lu":2011,"kids":2012,"phản":2013,"appe":2014,"quản":2015,"Mar":2016,"tit":2017,"vọng":2018,"Cái":2019,"tố":2020,"bil":2021,"God":2022,"edu":2023,"answ":2024,"vùng":2025,"fer":2026,"jec":2027,"late":2028,"sle":2029,"đảm":2030,"ben":2031,"ghts":2032,"Ngo":2033,"US":2034,"mal":2035,"đoạn":2036,"lish":2037,"căn":2038,"bay":2039,"ica":2040,"ural":2041,"ome":2042,"area":2043,"safe":2044,"trận":2045,"tiệ":2046,"gồm":2047,"situ":2048,"plac":2049,"hor":2050,"hữu":2051,"ele":2052,"draw":2053,"nhập":2054,"thử":2055,"epis":2056,"gs":2057,"Mà":2058,"xúc":2059,"Joh":2060,"Ind":2061,"sâu":2062,"fall":2063,"đá":2064,"figu":2065,"loy":2066,"ín":2067,"duy":2068,"imp":2069,"mode":2070,"ote":2071,"cept":2072,"lựa":2073,"star":2074,"elec":2075,"lớp":2076,"stop":2077,"phù":2078,"cư":2079,"khai":2080,"cas":2081,"usu":2082,"hot":2083,"vàng":2084,"Le":2085,"mong":2086,"khăn":2087,"deck":2088,"hind":2089,"Vậy":2090,"hồ":2091,"ói":2092,"John":2093,"ail":2094,"Man":2095,"fire":2096,"Hi":2097,"sum":2098,"giản":2099,"yet":2100,"post":2101,"lim":2102,"ious":2103,"hơi":2104,"sai":2105,"rộng":2106,"xong":2107,"Hãy":2108,"rap":2109,"Phi":2110,"nhu":2111,"trai":2112,"thất":2113,"nhé":2114,"Như":2115,"đọc":2116,"Ju":2117,"dành":2118,"Mr":2119,"hang":2120,"èo":2121,"sẻ":2122,"term":2123,"city":2124,"Bi":2125,"ịp":2126,"Don":2127,"lies":2128,"icat":2129,"izat":2130,"sell":2131,"ots":2132,"vit":2133,"cộng":2134,"tỷ":2135,"ased":2136,"ints":2137,"danh":2138,"phá":2139,"pes":2140,"trực":2141,"uro":2142,"phút":2143,"ount":2144,"phys":2145,"fan":2146,"meet":2147,"wind":2148,"luận":2149,"ộn":2150,"zing":2151,"Hàn":2152,"His":2153,"inat":2154,"vòng":2155,"near":2156,"ạp":2157,"gl":2158,"fav":2159,"èn":2160,"xử":2161,"peci":2162,"Sh":2163,"Hu":2164,"bat":2165,"yea":2166,"môi":2167,"arm":2168,"ury":2169,"sl":2170,"nhóm":2171,"Cũng":2172,"isn":2173,"fil":2174,"rew":2175,"đứa":2176,"Nhi":2177,"ọt":2178,"ried":2179,"thái":2180,"felt":2181,"Tại":2182,"dục":2183,"ying":2184,"ãn":2185,"ring":2186,"Hey":2187,"Af":2188,"biểu":2189,"utes":2190,"xanh":2191,"xét":2192,"ols":2193,"ham":2194,"vat":2195,"ràng":2196,"ines":2197,"tail":2198,"Yea":2199,"tern":2200,"chắn":2201,"easy":2202,"ult":2203,"jor":2204,"ode":2205,"đêm":2206,"unit":2207,"dle":2208,"viện":2209,"pris":2210,"lão":2211,"máu":2212,"emp":2213,"liền":2214,"vận":2215,"song":2216,"econ":2217,"lạnh":2218,"medi":2219,"lang":2220,"khoa":2221,"ổng":2222,"ider":2223,"Who":2224,"kéo":2225,"Eng":2226,"ands":2227,"ký":2228,"indi":2229,"nha":2230,"cải":2231,"expl":2232,"kích":2233,"tou":2234,"cit":2235,"cked":2236,"đa":2237,"anim":2238,"Ac":2239,"mic":2240,"ão":2241,"flo":2242,"Rồi":2243,"thú":2244,"nhẹ":2245,"thơ":2246,"ali":2247,"sư":2248,"tuần":2249,"nguy":2250,"lice":2251,"phép":2252,"Ri":2253,"dou":2254,"dạng":2255,"door":2256,"trad":2257,"ớm":2258,"sent":2259,"By":2260,"ses":2261,"sw":2262,"ric":2263,"huge":2264,"lue":2265,"luật":2266,"mô":2267,"Đông":2268,"tric":2269,"kẻ":2270,"Cách":2271,"ngờ":2272,"reco":2273,"fine":2274,"redu":2275,"dữ":2276,"ụng":2277,"ages":2278,"trải":2279,"Ki":2280,"ches":2281,"sáu":2282,"ủi":2283,"gave":2284,"flow":2285,"mặc":2286,"Minh":2287,"biển":2288,"kets":2289,"phúc":2290,"box":2291,"cies":2292,"reen":2293,"mối":2294,"beat":2295,"dàng":2296,"road":2297,"fut":2298,"fl":2299,"Po":2300,"sty":2301,"Ba":2302,"Ste":2303,"ded":2304,"load":2305,"rele":2306,"Đại":2307,"sis":2308,"iệc":2309,"hạ":2310,"bọn":2311,"yes":2312,"sug":2313,"sup":2314,"ping":2315,"cing":2316,"fli":2317,"hiểm":2318,"buổi":2319,"lost":2320,"Nat":2321,"coi":2322,"đóng":2323,"Bộ":2324,"Nor":2325,"func":2326,"hòa":2327,"anal":2328,"thịt":2329,"bánh":2330,"Did":2331,"tom":2332,"sạch":2333,"Wor":2334,"vent":2335,"ctor":2336,"hạnh":2337,"era":2338,"dev":2339,"met":2340,"Me":2341,"Bình":2342,"cân":2343,"Việc":2344,"mật":2345,"soon":2346,"ame":2347,"bot":2348,"tw":2349,"cir":2350,"dist":2351,"ane":2352,"vity":2353,"anti":2354,"entr":2355,"Are":2356,"wear":2357,"gone":2358,"chăm":2359,"đáp":2360,"stra":2361,"đừng":2362,"pati":2363,"text":2364,"lá":2365,"hại":2366,"cep":2367,"joy":2368,"đông":2369,"Col":2370,"writ":2371,"ghi":2372,"ked":2373,"Um":2374,"Di":2375,"ặn":2376,"linh":2377,"phạm":2378,"Here":2379,"đu":2380,"batt":2381,"dio":2382,"ỏng":2383,"õi":2384,"ếng":2385,"dần":2386,"ẵn":2387,"easi":2388,"Long":2389,"orig":2390,"ngon":2391,"ible":2392,"sli":2393,"sit":2394,"nóng":2395,"dòng":2396,"ream":2397,"Vũ":2398,"môn":2399,"fund":2400,"girl":2401,"sớm":2402,"hund":2403,"đỏ":2404,"fur":2405,"ệt":2406,"ỏa":2407,"Hoa":2408,"lao":2409,"ext":2410,"vai":2411,"ửi":2412,"cell":2413,"tar":2414,"sal":2415,"oud":2416,"sco":2417,"gun":2418,"tax":2419,"pose":2420,"gic":2421,"cáo":2422,"eyes":2423,"nền":2424,"mùa":2425,"ilar":2426,"pho":2427,"vốn":2428,"tám":2429,"ene":2430,"Any":2431,"ilt":2432,"anks":2433,"lai":2434,"nâng":2435,"wide":2436,"ler":2437,"mas":2438,"pec":2439,"phủ":2440,"sof":2441,"chấp":2442,"movi":2443,"risk":2444,"doll":2445,"tiện":2446,"mail":2447,"dden":2448,"ero":2449,"đem":2450,"ples":2451,"ẩu":2452,"ety":2453,"ery":2454,"pan":2455,"cháu":2456,"reli":2457,"link":2458,"nặng":2459,"thor":2460,"ming":2461,"Bởi":2462,"Su":2463,"thầy":2464,"mơ":2465,"town":2466,"dầu":2467,"lege":2468,"Fo":2469,"hậu":2470,"bri":2471,"tai":2472,"Làm":2473,"deep":2474,"acy":2475,"tổng":2476,"NG":2477,"gas":2478,"scri":2479,"boy":2480,"amp":2481,"sẵn":2482,"ret":2483,"shot":2484,"Bà":2485,"wond":2486,"yên":2487,"mẫu":2488,"chờ":2489,"lỗi":2490,"hur":2491,"kiểu":2492,"lạ":2493,"lắng":2494,"Te":2495,"đen":2496,"cánh":2497,"bảy":2498,"brou":2499,"fle":2500,"thúc":2501,"cuốn":2502,"Lăng":2503,"ủy":2504,"push":2505,"Lúc":2506,"ũi":2507,"god":2508,"Sự":2509,"ron":2510,"nuôi":2511,"Nội":2512,"huy":2513,"ley":2514,"Tây":2515,"gắng":2516,"tiểu":2517,"ớt":2518,"rel":2519,"ổn":2520,"ney":2521,"Look":2522,"răng":2523,"Thu":2524,"tec":2525,"Nói":2526,"tận":2527,"chữ":2528,"regi":2529,"mắc":2530,"vic":2531,"gat":2532,"Wil":2533,"dies":2534,"iệng":2535,"phim":2536,"meas":2537,"tinu":2538,"lack":2539,"mach":2540,"slow":2541,"Ge":2542,"khảo":2543,"Ra":2544,"sân":2545,"ged":2546,"nghỉ":2547,"nhờ":2548,"Jack":2549,"khổ":2550,"Your":2551,"Pho":2552,"ides":2553,"hút":2554,"Mc":2555,"dead":2556,"iss":2557,"đoàn":2558,"khắc":2559,"dad":2560,"ork":2561,"Ngày":2562,"Đức":2563,"reci":2564,"eff":2565,"send":2566,"Bắc":2567,"nel":2568,"đoán":2569,"tics":2570,"mái":2571,"dấu":2572,"lose":2573,"sour":2574,"cred":2575,"thấp":2576,"hone":2577,"óp":2578,"vượt":2579,"dạy":2580,"plus":2581,"hấp":2582,"ứt":2583,"Mon":2584,"tù":2585,"War":2586,"bly":2587,"awes":2588,"ủng":2589,"fair":2590,"fail":2591,"news":2592,"NA":2593,"sắp":2594,"xo":2595,"sơ":2596,"trac":2597,"ony":2598,"ầng":2599,"argu":2600,"Sup":2601,"ngôi":2602,"pie":2603,"bức":2604,"mand":2605,"ency":2606,"pack":2607,"ẹn":2608,"sold":2609,"Even":2610,"ied":2611,"Nhà":2612,"Đối":2613,"amin":2614,"trì":2615,"wall":2616,"ùa":2617,"abo":2618,"Har":2619,"bí":2620,"Thái":2621,"Cha":2622,"Nhật":2623,"tely":2624,"stic":2625,"chữa":2626,"àm":2627,"ods":2628,"spir":2629,"phy":2630,"Đồng":2631,"buồn":2632,"rate":2633,"iti":2634,"Ngh":2635,"ead":2636,"lộ":2637,"đăng":2638,"ided":2639,"inal":2640,"fra":2641,"thậm":2642,"swe":2643,"mana":2644,"lạc":2645,"roll":2646,"úa":2647,"sung":2648,"Văn":2649,"suốt":2650,"die":2651,"dog":2652,"đảo":2653,"lier":2654,"jump":2655,"cop":2656,"xung":2657,"đào":2658,"toán":2659,"iệp":2660,"Pat":2661,"og":2662,"tầm":2663,"hồn":2664,"kê":2665,"anta":2666,"camp":2667,"đẩy":2668,"tect":2669,"Dan":2670,"smo":2671,"NF":2672,"đô":2673,"òi":2674,"Ab":2675,"cắt":2676,"khám":2677,"meth":2678,"Về":2679,"sage":2680,"đột":2681,"lãnh":2682,"sec":2683,"cove":2684,"deli":2685,"hề":2686,"code":2687,"Tất":2688,"ade":2689,"sen":2690,"wife":2691,"thai":2692,"cla":2693,"abor":2694,"Euro":2695,"Dav":2696,"sitt":2697,"vels":2698,"ót":2699,"Tom":2700,"aged":2701,"nhắc":2702,"van":2703,"tội":2704,"tồn":2705,"York":2706,"dest":2707,"App":2708,"quên":2709,"ễm":2710,"duct":2711,"Gr":2712,"đợi":2713,"TV":2714,"Char":2715,"fly":2716,"Tri":2717,"hôn":2718,"dị":2719,"Gu":2720,"gine":2721,"rul":2722,"gửi":2723,"squ":2724,"vate":2725,"orts":2726,"xấu":2727,"núi":2728,"Linh":2729,"Đến":2730,"ats":2731,"dựa":2732,"den":2733,"Of":2734,"giai":2735,"cầm":2736,"tee":2737,"rist":2738,"mềm":2739,"tóc":2740,"alri":2741,"nghị":2742,"ngăn":2743,"nắm":2744,"igh":2745,"aver":2746,"blue":2747,"mom":2748,"nỗi":2749,"uage":2750,"Au":2751,"bla":2752,"Good":2753,"sat":2754,"mit":2755,"clu":2756,"Res":2757,"crit":2758,"quần":2759,"dru":2760,"Bây":2761,"ners":2762,"upon":2763,"đích":2764,"io":2765,"sun":2766,"chứa":2767,"pen":2768,"ined":2769,"kỷ":2770,"tầng":2771,"ford":2772,"ỗng":2773,"dám":2774,"pull":2775,"reas":2776,"nối":2777,"feat":2778,"dõi":2779,"đỡ":2780,"Wat":2781,"lea":2782,"niềm":2783,"ship":2784,"hair":2785,"ply":2786,"giấy":2787,"Nên":2788,"ram":2789,"bổ":2790,"Cu":2791,"èm":2792,"Được":2793,"size":2794,"lửa":2795,"ging":2796,"lễ":2797,"omic":2798,"fix":2799,"Bra":2800,"Sam":2801,"wit":2802,"khô":2803,"Năm":2804,"lĩnh":2805,"ẳn":2806,"Sy":2807,"fish":2808,"tươi":2809,"Tube":2810,"rely":2811,"cũ":2812,"sữa":2813,"va":2814,"Trên":2815,"tắc":2816,"đổ":2817,"thủy":2818,"hạt":2819,"kính":2820,"Bar":2821,"rac":2822,"Fi":2823,"acks":2824,"auti":2825,"emo":2826,"dang":2827,"goal":2828,"dây":2829,"niệm":2830,"tấn":2831,"sóc":2832,"comb":2833,"cà":2834,"rơi":2835,"Mẹ":2836,"nông":2837,"gà":2838,"sus":2839,"lam":2840,"yo":2841,"giàu":2842,"tín":2843,"ino":2844,"pha":2845,"mũi":2846,"evid":2847,"ngữ":2848,"Her":2849,"ngth":2850,"vũ":2851,"bại":2852,"mãi":2853,"bt":2854,"ùi":2855,"path":2856,"mày":2857,"har":2858,"aff":2859,"Aust":2860,"nghề":2861,"bon":2862,"wild":2863,"cup":2864,"King":2865,"suất":2866,"vil":2867,"xy":2868,"CO":2869,"dark":2870,"wel":2871,"tàu":2872,"sil":2873,"base":2874,"khẩu":2875,"Per":2876,"ray":2877,"eye":2878,"Dù":2879,"rage":2880,"ered":2881,"chem":2882,"band":2883,"nhạc":2884,"La":2885,"ease":2886,"Hay":2887,"Kim":2888,"intr":2889,"gió":2890,"wood":2891,"feet":2892,"log":2893,"nấu":2894,"mur":2895,"thở":2896,"Bên":2897,"psy":2898,"died":2899,"fat":2900,"lor":2901,"Mỗi":2902,"chào":2903,"Hải":2904,"Pháp":2905,"lad":2906,"ượu":2907,"tải":2908,"lli":2909,"khởi":2910,"jud":2911,"onsi":2912,"solu":2913,"cold":2914,"Fr":2915,"hài":2916,"lư":2917,"ror":2918,"ID":2919,"bật":2920,"stri":2921,"ised":2922,"valu":2923,"Bản":2924,"Ví":2925,"yard":2926,"dậy":2927,"glo":2928,"soát":2929,"xếp":2930,"mê":2931,"bột":2932,"Big":2933,"cập":2934,"ví":2935,"mời":2936,"owed":2937,"bio":2938,"hẳn":2939,"ấc":2940,"mưa":2941,"wish":2942,"tly":2943,"Lan":2944,"tốc":2945,"Get":2946,"bes":2947,"nửa":2948,"Sơn":2949,"Bước":2950,"nhằm":2951,"beha":2952,"za":2953,"Trần":2954,"tỏ":2955,"role":2956,"nec":2957,"buộc":2958,"màn":2959,"wise":2960,"host":2961,"góp":2962,"lts":2963,"Chị":2964,"plat":2965,"spot":2966,"hun":2967,"webs":2968,"heat":2969,"sens":2970,"nạn":2971,"Par":2972,"Our":2973,"prin":2974,"kept":2975,"prac":2976,"Ca":2977,"date":2978,"Uni":2979,"hood":2980,"hầu":2981,"mb":2982,"chặt":2983,"inde":2984,"oid":2985,"tour":2986,"sou":2987,"Ger":2988,"niên":2989,"equi":2990,"bạc":2991,"Pr":2992,"Đã":2993,"Cuối":2994,"ada":2995,"exc":2996,"Hiện":2997,"đám":2998,"viêm":2999,"rủi":3000,"coll":3001,"Si":3002,"loss":3003,"bếp":3004,"lude":3005,"rout":3006,"kịp":3007,"éo":3008,"ngắn":3009,"Cor":3010,"già":3011,"gent":3012,"Cao":3013,"paid":3014,"baby":3015,"due":3016,"rock":3017,"rời":3018,"bữa":3019,"eo":3020,"odu":3021,"rượu":3022,"II":3023,"mai":3024,"feed":3025,"Thực":3026,"Thời":3027,"Ser":3028,"thận":3029,"TH":3030,"Inst":3031,"ye":3032,"ns":3033,"cook":3034,"giết":3035,"hát":3036,"mm":3037,"cơm":3038,"rau":3039,"thăm":3040,"ams":3041,"cip":3042,"thừa":3043,"ãng":3044,"tle":3045,"tôn":3046,"cry":3047,"ịnh":3048,"Joe":3049,"Tử":3050,"phê":3051,"onto":3052,"phận":3053,"itat":3054,"tấm":3055,"sửa":3056,"ky":3057,"Rus":3058,"nes":3059,"offe":3060,"mạch":3061,"Des":3062,"City":3063,"Ni":3064,"From":3065,"Chu":3066,"mùi":3067,"Thứ":3068,"Lâm":3069,"kim":3070,"nge":3071,"bầu":3072,"cận":3073,"kém":3074,"đón":3075,"ado":3076,"skin":3077,"quán":3078,"plex":3079,"lành":3080,"save":3081,"vững":3082,"tan":3083,"gue":3084,"ker":3085,"mate":3086,"chie":3087,"kick":3088,"NFL":3089,"nine":3090,"đèn":3091,"rep":3092,"Mọi":3093,"dừng":3094,"Xin":3095,"Phải":3096,"rửa":3097,"zz":3098,"Hồ":3099,"lock":3100,"fit":3101,"Dis":3102,"auto":3103,"fed":3104,"bou":3105,"hous":3106,"ụp":3107,"Nga":3108,"Xem":3109,"thảo":3110,"lưng":3111,"Ảnh":3112,"pred":3113,"owns":3114,"haps":3115,"viol":3116,"jour":3117,"hell":3118,"drop":3119,"bir":3120,"boys":3121,"Cam":3122,"Liên":3123,"mix":3124,"Ngọc":3125,"See":3126,"pin":3127,"rút":3128,"Cần":3129,"xưa":3130,"Phật":3131,"els":3132,"sông":3133,"Đầu":3134,"Vân":3135,"Tex":3136,"phổ":3137,"erc":3138,"tuy":3139,"tộc":3140,"bụng":3141,"Brit":3142,"lặng":3143,"Ban":3144,"Ne":3145,"race":3146,"rote":3147,"tot":3148,"Ob":3149,"mans":3150,"giận":3151,"lược":3152,"ml":3153,"cash":3154,"sess":3155,"enem":3156,"suff":3157,"khóa":3158,"nhật":3159,"rup":3160,"roy":3161,"held":3162,"Ha":3163,"cot":3164,"zed":3165,"Yep":3166,"Most":3167,"bert":3168,"Geor":3169,"ogle":3170,"ụi":3171,"gar":3172,"lied":3173,"Min":3174,"Cậu":3175,"hung":3176,"Kỳ":3177,"mẽ":3178,"mber":3179,"entu":3180,"ườn":3181,"avy":3182,"sàng":3183,"siêu":3184,"dau":3185,"mã":3186,"cles":3187,"ngân":3188,"uses":3189,"urch":3190,"poc":3191,"Lý":3192,"equ":3193,"Dr":3194,"San":3195,"ớp":3196,"gốc":3197,"ile":3198,"eri":3199,"bul":3200,"gor":3201,"xim":3202,"evol":3203,"prep":3204,"trat":3205,"miền":3206,"Chủ":3207,"ably":3208,"Che":3209,"Ear":3210,"ana":3211,"rừng":3212,"bào":3213,"vết":3214,"cky":3215,"én":3216,"Josh":3217,"Stu":3218,"fied":3219,"fam":3220,"licy":3221,"phối":3222,"Ed":3223,"beli":3224,"dig":3225,"lect":3226,"sea":3227,"agre":3228,"châu":3229,"Sao":3230,"En":3231,"Also":3232,"hate":3233,"Med":3234,"Xu":3235,"unk":3236,"apo":3237,"docu":3238,"igat":3239,"mừng":3240,"bày":3241,"Thật":3242,"bra":3243,"Ad":3244,"Jim":3245,"ref":3246,"thơm":3247,"tổn":3248,"ral":3249,"ict":3250,"xi":3251,"nắng":3252,"lầm":3253,"Ty":3254,"fy":3255,"Sain":3256,"vời":3257,"Sa":3258,"Was":3259,"ived":3260,"Tra":3261,"kêu":3262,"omy":3263,"BA":3264,"oil":3265,"lẫn":3266,"cơn":3267,"Tổng":3268,"Đúng":3269,"miss":3270,"ets":3271,"till":3272,"biện":3273,"ault":3274,"Cả":3275,"chảy":3276,"tree":3277,"Câu":3278,"tùy":3279,"bank":3280,"Mu":3281,"Bảo":3282,"gam":3283,"pon":3284,"airs":3285,"assu":3286,"reve":3287,"trao":3288,"trou":3289,"làng":3290,"dáng":3291,"dai":3292,"born":3293,"Face":3294,"inks":3295,"mỹ":3296,"Nhân":3297,"tend":3298,"giám":3299,"Gen":3300,"ợt":3301,"mark":3302,"Fu":3303,"arri":3304,"bè":3305,"rối":3306,"Ngay":3307,"Hội":3308,"tái":3309,"poor":3310,"cate":3311,"góc":3312,"rich":3313,"web":3314,"Tiểu":3315,"NH":3316,"nia":3317,"TP":3318,"ĩa":3319,"Thị":3320,"Mặc":3321,"aim":3322,"Mike":3323,"Wow":3324,"bing":3325,"hurt":3326,"crip":3327,"Tiếp":3328,"Afr":3329,"join":3330,"cử":3331,"moun":3332,"Tam":3333,"bow":3334,"flu":3335,"Coun":3336,"chậm":3337,"page":3338,"ann":3339,"thụ":3340,"Jap":3341,"Đừng":3342,"sick":3343,"Two":3344,"dày":3345,"Châu":3346,"spo":3347,"fear":3348,"đệ":3349,"mine":3350,"SA":3351,"cấu":3352,"Thần":3353,"cord":3354,"bag":3355,"khối":3356,"vội":3357,"bird":3358,"hips":3359,"vehi":3360,"aul":3361,"ern":3362,"ngàn":3363,"Rất":3364,"stly":3365,"chat":3366,"gỗ":3367,"reac":3368,"Ai":3369,"họa":3370,"não":3371,"prom":3372,"damn":3373,"leag":3374,"ngọt":3375,"El":3376,"Pres":3377,"Have":3378,"mát":3379,"tĩnh":3380,"binh":3381,"dern":3382,"giấc":3383,"sia":3384,"ngại":3385,"alo":3386,"fill":3387,"tô":3388,"loạn":3389,"Hắn":3390,"Kết":3391,"Đo":3392,"gold":3393,"rian":3394,"khắp":3395,"miễn":3396,"ona":3397,"trừ":3398,"gree":3399,"đuổi":3400,"sóng":3401,"hồng":3402,"loài":3403,"weap":3404,"Red":3405,"căng":3406,"trúc":3407,"Cali":3408,"Kinh":3409,"Pl":3410,"Fe":3411,"gắn":3412,"yond":3413,"fans":3414,"Many":3415,"Hôm":3416,"gene":3417,"nar":3418,"lệnh":3419,"dinh":3420,"mệt":3421,"file":3422,"prog":3423,"More":3424,"khóc":3425,"noti":3426,"thập":3427,"thù":3428,"Rep":3429,"vior":3430,"weak":3431,"Sp":3432,"phen":3433,"soft":3434,"Ben":3435,"Dep":3436,"Tình":3437,"tran":3438,"sac":3439,"Sim":3440,"volu":3441,"fell":3442,"Mor":3443,"giỏi":3444,"thao":3445,"mad":3446,"Will":3447,"Đặc":3448,"army":3449,"sets":3450,"mắn":3451,"onse":3452,"Jes":3453,"SE":3454,"cháy":3455,"East":3456,"pas":3457,"cứng":3458,"zero":3459,"emer":3460,"vua":3461,"secu":3462,"bò":3463,"Bài":3464,"site":3465,"ysis":3466,"Ly":3467,"đòi":3468,"nét":3469,"shir":3470,"fing":3471,"nic":3472,"CM":3473,"lối":3474,"bel":3475,"bảng":3476,"ids":3477,"Bill":3478,"inv":3479,"gers":3480,"hẹn":3481,"túi":3482,"ison":3483,"tệ":3484,"wast":3485,"dom":3486,"Ko":3487,"ier":3488,"zone":3489,"tian":3490,"male":3491,"lex":3492,"Gia":3493,"shar":3494,"Cảm":3495,"lăm":3496,"CH":3497,"temp":3498,"lid":3499,"opin":3500,"sổ":3501,"redi":3502,"Ah":3503,"ngạc":3504,"repe":3505,"ngôn":3506,"oper":3507,"băng":3508,"tí":3509,"tạp":3510,"phic":3511,"AM":3512,"Cl":3513,"West":3514,"Hồng":3515,"Cùng":3516,"note":3517,"ily":3518,"Tiên":3519,"ht":3520,"tả":3521,"nger":3522,"tặng":3523,"mệnh":3524,"Tod":3525,"Alth":3526,"lượt":3527,"Hơn":3528,"ives":3529,"ator":3530,"lots":3531,"trụ":3532,"ston":3533,"spea":3534,"ites":3535,"jury":3536,"audi":3537,"bền":3538,"Hy":3539,"bod":3540,"ậc":3541,"Tur":3542,"Nhìn":3543,"đậu":3544,"Rob":3545,"bang":3546,"Bro":3547,"film":3548,"edge":3549,"Does":3550,"nè":3551,"nhảy":3552,"ngũ":3553,"tha":3554,"hon":3555,"liệt":3556,"Wal":3557,"idge":3558,"LA":3559,"ka":3560,"lẻ":3561,"Wash":3562,"Pri":3563,"thẩm":3564,"thói":3565,"itor":3566,"Dude":3567,"fol":3568,"hào":3569,"ior":3570,"Over":3571,"suit":3572,"ựng":3573,"hole":3574,"task":3575,"llo":3576,"sánh":3577,"core":3578,"ils":3579,"Wa":3580,"ium":3581,"scen":3582,"publ":3583,"shop":3584,"yest":3585,"nhấn":3586,"Sha":3587,"enn":3588,"sam":3589,"chạm":3590,"kì":3591,"Ke":3592,"bậc":3593,"Very":3594,"mộ":3595,"gust":3596,"tạm":3597,"hosp":3598,"remo":3599,"nal":3600,"bud":3601,"tắt":3602,"cro":3603,"blow":3604,"mary":3605,"nie":3606,"ops":3607,"hea":3608,"fas":3609,"tack":3610,"Tư":3611,"ades":3612,"tròn":3613,"canh":3614,"tao":3615,"eval":3616,"hứng":3617,"Once":3618,"rial":3619,"bile":3620,"circ":3621,"blah":3622,"đức":3623,"thí":3624,"cong":3625,"eli":3626,"quê":3627,"chua":3628,"lái":3629,"tein":3630,"crow":3631,"PC":3632,"Vào":3633,"atic":3634,"làn":3635,"Bay":3636,"tịch":3637,"uals":3638,"cặp":3639,"kèm":3640,"muối":3641,"mại":3642,"Quân":3643,"Bur":3644,"clus":3645,"Hoặc":3646,"pet":3647,"thua":3648,"rey":3649,"đốc":3650,"decl":3651,"arti":3652,"gri":3653,"vor":3654,"shut":3655,"cưới":3656,"Lê":3657,"tex":3658,"Cle":3659,"thy":3660,"grat":3661,"mụ":3662,"lap":3663,"ert":3664,"din":3665,"Bệnh":3666,"ghế":3667,"Cơ":3668,"sequ":3669,"ax":3670,"Jan":3671,"Bác":3672,"agg":3673,"item":3674,"Hồn":3675,"Quan":3676,"expe":3677,"kiệm":3678,"Wind":3679,"vot":3680,"bối":3681,"sme":3682,"umb":3683,"omen":3684,"béo":3685,"Tết":3686,"ko":3687,"aker":3688,"vẽ":3689,"duce":3690,"lỗ":3691,"ians":3692,"gấp":3693,"bia":3694,"thuê":3695,"ico":3696,"Lưu":3697,"hộp":3698,"rule":3699,"chụp":3700,"Tâm":3701,"cade":3702,"eds":3703,"teen":3704,"aut":3705,"wea":3706,"nổ":3707,"html":3708,"ngã":3709,"Hòa":3710,"kno":3711,"tờ":3712,"kiên":3713,"ruit":3714,"tảng":3715,"Twit":3716,"Sat":3717,"ify":3718,"rer":3719,"trà":3720,"pun":3721,"Mai":3722,"sad":3723,"Fren":3724,"Âu":3725,"ords":3726,"sex":3727,"cele":3728,"ffe":3729,"aran":3730,"upid":3731,"địch":3732,"lông":3733,"biên":3734,"Giờ":3735,"Mic":3736,"manu":3737,"bac":3738,"ctu":3739,"laun":3740,"Come":3741,"Học":3742,"raid":3743,"fla":3744,"Sẽ":3745,"bắn":3746,"liar":3747,"rush":3748,"Chúa":3749,"none":3750,"Lại":3751,"farm":3752,"chim":3753,"Bow":3754,"nỗ":3755,"copy":3756,"mỏi":3757,"sốt":3758,"Cent":3759,"efit":3760,"ED":3761,"brea":3762,"cru":3763,"Hình":3764,"Air":3765,"sna":3766,"Sund":3767,"Spe":3768,"Ple":3769,"Day":3770,"Dra":3771,"refe":3772,"mun":3773,"hãi":3774,"symp":3775,"Sure":3776,"ỡi":3777,"Isra":3778,"gard":3779,"pal":3780,"vỡ":3781,"cape":3782,"mort":3783,"ario":3784,"onic":3785,"ghe":3786,"vỏ":3787,"ager":3788,"AI":3789,"hàm":3790,"tụ":3791,"tual":3792,"Tim":3793,"đỉnh":3794,"spl":3795,"kênh":3796,"Cuộc":3797,"hạng":3798,"west":3799,"cẩn":3800,"laws":3801,"cars":3802,"Thôi":3803,"loc":3804,"phức":3805,"tap":3806,"Lea":3807,"Pu":3808,"uốt":3809,"hat":3810,"cục":3811,"mass":3812,"Chắc":3813,"mile":3814,"boo":3815,"Paul":3816,"giây":3817,"moti":3818,"odes":3819,"Ken":3820,"cand":3821,"anci":3822,"rab":3823,"aks":3824,"hả":3825,"tủ":3826,"vườn":3827,"icks":3828,"quà":3829,"iers":3830,"ases":3831,"demo":3832,"inju":3833,"nect":3834,"khán":3835,"Ru":3836,"Na":3837,"inno":3838,"chấm":3839,"Lục":3840,"edit":3841,"tắm":3842,"truy":3843,"efs":3844,"eces":3845,"BB":3846,"IS":3847,"lla":3848,"nder":3849,"lọc":3850,"mess":3851,"rand":3852,"bờ":3853,"libr":3854,"Nghe":3855,"ướp":3856,"drug":3857,"appo":3858,"vang":3859,"dạ":3860,"vey":3861,"mãn":3862,"trầm":3863,"mir":3864,"Bằng":3865,"diệt":3866,"fted":3867,"aled":3868,"tele":3869,"hảo":3870,"quái":3871,"Tiêu":3872,"Mil":3873,"xinh":3874,"rif":3875,"Viet":3876,"sian":3877,"ém":3878,"AC":3879,"Sử":3880,"edy":3881,"cuss":3882,"tiềm":3883,"Sci":3884,"Bạch":3885,"arms":3886,"Ano":3887,"List":3888,"hum":3889,"Jew":3890,"Scho":3891,"IC":3892,"Nhất":3893,"bits":3894,"tool":3895,"sand":3896,"Phần":3897,"Wait":3898,"mise":3899,"diag":3900,"Cảnh":3901,"mely":3902,"tàn":3903,"Dur":3904,"lefi":3905,"oo":3906,"Bất":3907,"sust":3908,"Ry":3909,"erve":3910,"swi":3911,"ịn":3912,"pean":3913,"PS":3914,"grew":3915,"tòa":3916,"đế":3917,"ds":3918,"Mat":3919,"thỏa":3920,"lady":3921,"ND":3922,"cret":3923,"TO":3924,"ala":3925,"AD":3926,"lf":3927,"Chin":3928,"Dạ":3929,"Fin":3930,"bear":3931,"tán":3932,"aly":3933,"Ber":3934,"wow":3935,"vin":3936,"edom":3937,"Scot":3938,"ceed":3939,"egg":3940,"Park":3941,"fir":3942,"Sec":3943,"ip":3944,"pite":3945,"bề":3946,"ủa":3947,"Inte":3948,"thus":3949,"snow":3950,"sơn":3951,"Fran":3952,"Off":3953,"lũ":3954,"dry":3955,"dim":3956,"tat":3957,"foc":3958,"Giáo":3959,"pool":3960,"uts":3961,"Sinh":3962,"aur":3963,"thờ":3964,"via":3965,"đáo":3966,"cel":3967,"Giá":3968,"chea":3969,"toms":3970,"requ":3971,"cis":3972,"tes":3973,"Sw":3974,"Gar":3975,"bum":3976,"runs":3977,"giật":3978,"Lon":3979,"Chí":3980,"võ":3981,"Oc":3982,"spi":3983,"ớn":3984,"kín":3985,"đập":3986,"họp":3987,"Ang":3988,"Mười":3989,"fold":3990,"mith":3991,"kem":3992,"grab":3993,"lip":3994,"Lin":3995,"Im":3996,"cốt":3997,"cipl":3998,"user":3999,"lô":4000,"iPh":4001,"ears":4002,"hus":4003,"clin":4004,"eth":4005,"ướt":4006,"Adam":4007,"doc":4008,"sàn":4009,"elds":4010,"phạt":4011,"Quy":4012,"tung":4013,"gói":4014,"lục":4015,"anyw":4016,"Lam":4017,"joke":4018,"Cong":4019,"Số":4020,"Tay":4021,"Mac":4022,"Mặt":4023,"ech":4024,"Jer":4025,"Cứ":4026,"map":4027,"Sor":4028,"Sep":4029,"anch":4030,"ota":4031,"surr":4032,"đựng":4033,"AR":4034,"phó":4035,"Tôn":4036,"mod":4037,"Dani":4038,"Mark":4039,"park":4040,"sky":4041,"sôi":4042,"High":4043,"ria":4044,"Đà":4045,"dịp":4046,"mitt":4047,"cil":4048,"ngực":4049,"Bre":4050,"phán":4051,"Matt":4052,"phú":4053,"cản":4054,"warm":4055,"ọa":4056,"jobs":4057,"trip":4058,"gies":4059,"vay":4060,"fai":4061,"bled":4062,"Frid":4063,"Lou":4064,"ater":4065,"Sở":4066,"tỉ":4067,"dao":4068,"Mex":4069,"ji":4070,"Thom":4071,"Hạo":4072,"ya":4073,"phe":4074,"vill":4075,"ida":4076,"flat":4077,"insu":4078,"ains":4079,"ngọn":4080,"Thủ":4081,"ngón":4082,"ES":4083,"Tal":4084,"diet":4085,"tràn":4086,"dogs":4087,"nợ":4088,"Rich":4089,"hư":4090,"Take":4091,"Alex":4092,"bỗng":4093,"Mary":4094,"Mus":4095,"Thấy":4096,"loye":4097,"mụn":4098,"kers":4099,"Xuân":4100,"kịch":4101,"Thủy":4102,"tau":4103,"Phú":4104,"Star":4105,"rapy":4106,"Đạo":4107,"ruột":4108,"mỡ":4109,"acts":4110,"gã":4111,"cris":4112,"Am":4113,"úy":4114,"stan":4115,"lore":4116,"oxy":4117,"loso":4118,"Qua":4119,"CP":4120,"khúc":4121,"ower":4122,"ques":4123,"san":4124,"Tự":4125,"liam":4126,"vs":4127,"chó":4128,"sett":4129,"gọn":4130,"lát":4131,"Lần":4132,"tốn":4133,"thả":4134,"Def":4135,"lab":4136,"desi":4137,"Ky":4138,"thầm":4139,"tag":4140,"las":4141,"thôn":4142,"Vừa":4143,"ises":4144,"aron":4145,"Quý":4146,"Law":4147,"bớt":4148,"điển":4149,"thuế":4150,"hero":4151,"vert":4152,"trốn":4153,"tiếc":4154,"asy":4155,"ngựa":4156,"reds":4157,"gged":4158,"tây":4159,"curi":4160,"dứt":4161,"ake":4162,"Pal":4163,"TR":4164,"Tân":4165,"urs":4166,"anx":4167,"poll":4168,"norm":4169,"Pre":4170,"Flor":4171,"ware":4172,"ẹo":4173,"glad":4174,"trộn":4175,"Cap":4176,"loạt":4177,"Độ":4178,"Hen":4179,"bath":4180,"ngài":4181,"Hol":4182,"tun":4183,"nở":4184,"Nước":4185,"lean":4186,"loan":4187,"ruc":4188,"đài":4189,"Play":4190,"Khu":4191,"Bob":4192,"gate":4193,"ug":4194,"ara":4195,"mảnh":4196,"Hành":4197,"fuel":4198,"AT":4199,"phấn":4200,"pire":4201,"bận":4202,"hãng":4203,"sexu":4204,"ngư":4205,"Trời":4206,"phái":4207,"Rol":4208,"pted":4209,"hol":4210,"bát":4211,"CD":4212,"Sư":4213,"khứ":4214,"chợ":4215,"tery":4216,"Sun":4217,"nồi":4218,"Net":4219,"gnit":4220,"Da":4221,"Ve":4222,"hasn":4223,"Kho":4224,"táo":4225,"IP":4226,"nhan":4227,"Chưa":4228,"hỗn":4229,"súng":4230,"boat":4231,"Make":4232,"Tit":4233,"dược":4234,"fif":4235,"Str":4236,"thác":4237,"iled":4238,"del":4239,"unt":4240,"pair":4241,"USD":4242,"hadn":4243,"má":4244,"phu":4245,"Nàng":4246,"hủy":4247,"reti":4248,"Wo":4249,"Dư":4250,"hứa":4251,"club":4252,"hè":4253,"UK":4254,"sứ":4255,"chặn":4256,"ợn":4257,"chối":4258,"cài":4259,"Bas":4260,"Next":4261,"vous":4262,"bạch":4263,"nhắn":4264,"Thay":4265,"ori":4266,"nhẫn":4267,"Got":4268,"legs":4269,"wash":4270,"rema":4271,"mực":4272,"Phát":4273,"thải":4274,"hop":4275,"đốt":4276,"bông":4277,"cean":4278,"sắt":4279,"iver":4280,"ẫm":4281,"Mục":4282,"Giải":4283,"Giới":4284,"lian":4285,"conc":4286,"une":4287,"Ama":4288,"Tuấn":4289,"trôi":4290,"Ninh":4291,"cán":4292,"pert":4293,"Tài":4294,"deb":4295,"chán":4296,"Mer":4297,"vere":4298,"bles":4299,"thes":4300,"OS":4301,"sạn":4302,"rise":4303,"Nha":4304,"icul":4305,"adap":4306,"chục":4307,"cất":4308,"Jeff":4309,"ịa":4310,"xoay":4311,"coin":4312,"trần":4313,"torm":4314,"Giả":4315,"nges":4316,"chúc":4317,"puts":4318,"quỷ":4319,"tựa":4320,"gay":4321,"ride":4322,"Nghi":4323,"burn":4324,"sts":4325,"Game":4326,"icer":4327,"IV":4328,"gạo":4329,"meat":4330,"hải":4331,"Ham":4332,"lets":4333,"FC":4334,"Gra":4335,"evin":4336,"lừa":4337,"hùng":4338,"bord":4339,"Phil":4340,"đậm":4341,"rick":4342,"tia":4343,"Bal":4344,"zon":4345,"điên":4346,"Jay":4347,"Each":4348,"offs":4349,"ộm":4350,"bull":4351,"AL":4352,"Hạ":4353,"hiếm":4354,"Mal":4355,"bill":4356,"ancy":4357,"agen":4358,"Tin":4359,"khớp":4360,"acid":4361,"sla":4362,"Val":4363,"Tech":4364,"eh":4365,"gion":4366,"cỏ":4367,"km":4368,"cú":4369,"Này":4370,"cột":4371,"mut":4372,"tam":4373,"Nick":4374,"zo":4375,"gery":4376,"ues":4377,"tip":4378,"dia":4379,"Lord":4380,"ER":4381,"clip":4382,"Thậm":4383,"hôi":4384,"cher":4385,"uary":4386,"tách":4387,"chap":4388,"Tổ":4389,"IT":4390,"conv":4391,"Miss":4392,"ùm":4393,"trig":4394,"rad":4395,"thẻ":4396,"AN":4397,"zen":4398,"tật":4399,"adul":4400,"cker":4401,"Nữ":4402,"ests":4403,"vac":4404,"ụt":4405,"root":4406,"wake":4407,"boss":4408,"Mad":4409,"Tiến":4410,"đẳng":4411,"earn":4412,"Act":4413,"atta":4414,"Only":4415,"sir":4416,"Đảng":4417,"ẫy":4418,"Put":4419,"cờ":4420,"dính":4421,"Repu":4422,"PT":4423,"Biết":4424,"outs":4425,"pher":4426,"iden":4427,"Pod":4428,"Bowl":4429,"len":4430,"Chú":4431,"Mel":4432,"lắp":4433,"syn":4434,"xứng":4435,"liz":4436,"luck":4437,"Apri":4438,"Yu":4439,"eu":4440,"íu":4441,"mone":4442,"mì":4443,"Real":4444,"dan":4445,"bụi":4446,"py":4447,"Ryan":4448,"bạo":4449,"seg":4450,"tớ":4451,"sey":4452,"Out":4453,"tang":4454,"Ter":4455,"rem":4456,"Eli":4457,"Mari":4458,"xâm":4459,"Sài":4460,"VID":4461,"ggle":4462,"thro":4463,"June":4464,"tch":4465,"Môn":4466,"aign":4467,"Bố":4468,"giấu":4469,"Mart":4470,"weet":4471,"seat":4472,"Shi":4473,"Show":4474,"eper":4475,"trấn":4476,"thảm":4477,"Pan":4478,"mỉ":4479,"alco":4480,"hổ":4481,"cm":4482,"nur":4483,"hall":4484,"ups":4485,"fro":4486,"zi":4487,"ato":4488,"Thầy":4489,"sợi":4490,"bli":4491,"heal":4492,"kne":4493,"pil":4494,"ski":4495,"cổng":4496,"Lão":4497,"kg":4498,"bin":4499,"rẻ":4500,"ngơi":4501,"Thr":4502,"cuse":4503,"fts":4504,"debt":4505,"Đôi":4506,"ilit":4507,"Num":4508,"bám":4509,"Octo":4510,"bru":4511,"phr":4512,"phẫu":4513,"susp":4514,"Ăn":4515,"Je":4516,"Uk":4517,"HCM":4518,"dot":4519,"milk":4520,"hes":4521,"nit":4522,"hận":4523,"BC":4524,"sót":4525,"treo":4526,"ninh":4527,"idel":4528,"wiki":4529,"Back":4530,"dĩ":4531,"July":4532,"Ten":4533,"Dece":4534,"Bet":4535,"rish":4536,"huấn":4537,"dâu":4538,"stro":4539,"tos":4540,"lưới":4541,"Tinh":4542,"ffic":4543,"ads":4544,"AP":4545,"tiny":4546,"ngập":4547,"Sea":4548,"Tiền":4549,"ênh":4550,"muộn":4551,"dir":4552,"Hill":4553,"Vir":4554,"dent":4555,"nút":4556,"shad":4557,"exch":4558,"mét":4559,"Last":4560,"Vô":4561,"tỏa":4562,"bãi":4563,"trào":4564,"DNA":4565,"Hàng":4566,"ddy":4567,"pill":4568,"săn":4569,"bone":4570,"flip":4571,"wave":4572,"Den":4573,"Dam":4574,"dit":4575,"ìa":4576,"Jord":4577,"Gòn":4578,"Sm":4579,"Sto":4580,"điệu":4581,"trit":4582,"Muốn":4583,"Cour":4584,"AS":4585,"wins":4586,"ngừa":4587,"harm":4588,"Que":4589,"Mast":4590,"cãi":4591,"rãi":4592,"ller":4593,"ays":4594,"Vis":4595,"jok":4596,"tuệ":4597,"gỡ":4598,"Mã":4599,"Wel":4600,"Mrs":4601,"quận":4602,"Vị":4603,"Yêu":4604,"pis":4605,"lãng":4606,"Phó":4607,"ady":4608,"dịu":4609,"Fed":4610,"nose":4611,"ule":4612,"Fre":4613,"lung":4614,"chốt":4615,"cern":4616,"tons":4617,"roof":4618,"lính":4619,"neck":4620,"lắc":4621,"hire":4622,"Tính":4623,"nấm":4624,"pump":4625,"lệch":4626,"vens":4627,"Sen":4628,"móc":4629,"rub":4630,"gợi":4631,"Pete":4632,"mờ":4633,"hiển":4634,"đeo":4635,"Ấn":4636,"Địa":4637,"math":4638,"Toàn":4639,"tox":4640,"LC":4641,"Ira":4642,"vong":4643,"Sal":4644,"ộp":4645,"inch":4646,"exe":4647,"chấn":4648,"khen":4649,"rare":4650,"tood":4651,"Mới":4652,"ngâm":4653,"poly":4654,"cket":4655,"mây":4656,"noon":4657,"ễu":4658,"Hall":4659,"Cal":4660,"nuc":4661,"khát":4662,"init":4663,"Của":4664,"hô":4665,"radi":4666,"MT":4667,"vant":4668,"Phạm":4669,"Yên":4670,"xuân":4671,"ỳnh":4672,"err":4673,"kin":4674,"lồ":4675,"raw":4676,"túc":4677,"mag":4678,"loud":4679,"aco":4680,"roid":4681,"evil":4682,"Lời":4683,"fal":4684,"emph":4685,"tie":4686,"dọn":4687,"Tập":4688,"mốt":4689,"đói":4690,"Iraq":4691,"Sur":4692,"nhạt":4693,"Up":4694,"nhỉ":4695,"rob":4696,"gro":4697,"tông":4698,"oth":4699,"ured":4700,"trữ":4701,"Dar":4702,"Thân":4703,"Part":4704,"Actu":4705,"mỏng":4706,"Hel":4707,"Thưa":4708,"giãn":4709,"affe":4710,"vải":4711,"giày":4712,"wire":4713,"CS":4714,"bó":4715,"stim":4716,"Nove":4717,"Cổ":4718,"Clar":4719,"bute":4720,"Dự":4721,"ẹt":4722,"ốm":4723,"moon":4724,"ox":4725,"gật":4726,"tall":4727,"cago":4728,"Định":4729,"ghét":4730,"ums":4731,"tôm":4732,"chùa":4733,"Both":4734,"Quá":4735,"nãy":4736,"thin":4737,"hen":4738,"boom":4739,"heo":4740,"Cộng":4741,"Sou":4742,"Mid":4743,"giáp":4744,"Rủi":4745,"bơ":4746,"mill":4747,"Song":4748,"ours":4749,"dumb":4750,"golf":4751,"Whe":4752,"nụ":4753,"vạn":4754,"Hóa":4755,"annu":4756,"orde":4757,"isol":4758,"rác":4759,"Nhận":4760,"Max":4761,"dừa":4762,"hỏng":4763,"Ủy":4764,"Ari":4765,"Vâng":4766,"Vic":4767,"Ngài":4768,"iff":4769,"fasc":4770,"stal":4771,"aid":4772,"đam":4773,"pure":4774,"trưa":4775,"Tok":4776,"Stat":4777,"crew":4778,"cát":4779,"fare":4780,"ượn":4781,"gym":4782,"rum":4783,"Card":4784,"bare":4785,"mến":4786,"liều":4787,"Nhờ":4788,"vé":4789,"Tóm":4790,"aces":4791,"cab":4792,"Pi":4793,"trau":4794,"Hồi":4795,"Ver":4796,"lax":4797,"busy":4798,"Poc":4799,"ata":4800,"leo":4801,"chúa":4802,"trại":4803,"zer":4804,"sem":4805,"Ul":4806,"Vu":4807,"lâm":4808,"ulty":4809,"Mấy":4810,"Mur":4811,"huh":4812,"hầm":4813,"goti":4814,"unic":4815,"Love":4816,"thưa":4817,"illy":4818,"cự":4819,"điệp":4820,"Dùng":4821,"ngắm":4822,"mọc":4823,"dome":4824,"cấm":4825,"BS":4826,"Sean":4827,"gins":4828,"Đang":4829,"Đào":4830,"Dân":4831,"trọn":4832,"Obvi":4833,"lif":4834,"civi":4835,"iter":4836,"Đế":4837,"sole":4838,"mous":4839,"Luật":4840,"gur":4841,"Edu":4842,"Sáng":4843,"thấu":4844,"Give":4845,"Hùng":4846,"Gree":4847,"fou":4848,"Kore":4849,"xứ":4850,"ngộ":4851,"Four":4852,"vacc":4853,"uti":4854,"dối":4855,"hill":4856,"bù":4857,"leep":4858,"swim":4859,"TS":4860,"ud":4861,"mèo":4862,"lia":4863,"soil":4864,"Trái":4865,"Nah":4866,"bond":4867,"geo":4868,"Op":4869,"flag":4870,"tage":4871,"edly":4872,"gift":4873,"quit":4874,"poli":4875,"đớn":4876,"isms":4877,"haun":4878,"pray":4879,"rais":4880,"Tony":4881,"Eag":4882,"nho":4883,"CE":4884,"IN":4885,"Tell":4886,"đợt":4887,"owe":4888,"Plus":4889,"Cụ":4890,"lict":4891,"olf":4892,"fake":4893,"ula":4894,"Ukra":4895,"vote":4896,"Keep":4897,"Tìm":4898,"imed":4899,"mạc":4900,"Fuck":4901,"hook":4902,"hits":4903,"tiêm":4904,"iety":4905,"nhe":4906,"tac":4907,"vice":4908,"ules":4909,"Bron":4910,"etc":4911,"PH":4912,"liqu":4913,"Sch":4914,"thâm":4915,"east":4916,"rắn":4917,"đĩa":4918,"Tre":4919,"cốc":4920,"đùa":4921,"khôn":4922,"Đài":4923,"enty":4924,"HD":4925,"vas":4926,"uty":4927,"lend":4928,"ía":4929,"neur":4930,"uat":4931,"dick":4932,"ustr":4933,"tiệc":4934,"Ram":4935,"Bao":4936,"bomb":4937,"hitt":4938,"Điện":4939,"frea":4940,"ụy":4941,"mau":4942,"ith":4943,"sely":4944,"Litt":4945,"Vẫn":4946,"Đình":4947,"hối":4948,"đành":4949,"Đoàn":4950,"TC":4951,"đạp":4952,"nhắm":4953,"nhịp":4954,"luen":4955,"sav":4956,"bọc":4957,"trú":4958,"Cow":4959,"chở":4960,"brat":4961,"Cra":4962,"MS":4963,"ệu":4964,"Dung":4965,"đằng":4966,"PA":4967,"màng":4968,"wing":4969,"Hưng":4970,"cay":4971,"expo":4972,"eco":4973,"đạn":4974,"Wr":4975,"lùng":4976,"Bốn":4977,"xóa":4978,"Hoàn":4979,"lake":4980,"Span":4981,"Tên":4982,"gage":4983,"Lau":4984,"Ms":4985,"vive":4986,"bom":4987,"mạo":4988,"Life":4989,"cướp":4990,"lí":4991,"bell":4992,"Time":4993,"Top":4994,"exec":4995,"hion":4996,"guns":4997,"itsu":4998,"dọc":4999,"Dou":5000,"RE":5001,"Ngu":5002,"nát":5003,"khái":5004,"Nob":5005,"Stre":5006,"Pret":5007,"Haw":5008,"vul":5009,"bấm":5010,"iron":5011,"Lee":5012,"nhạy":5013,"hiệt":5014,"crap":5015,"True":5016,"thấm":5017,"eath":5018,"Sing":5019,"mò":5020,"llig":5021,"ares":5022,"Dưới":5023,"Chọn":5024,"lò":5025,"BI":5026,"mộng":5027,"Cur":5028,"Carl":5029,"hao":5030,"Ngân":5031,"tune":5032,"Huy":5033,"Nice":5034,"zes":5035,"cậy":5036,"Bit":5037,"lãi":5038,"Rod":5039,"chai":5040,"chip":5041,"Viện":5042,"bão":5043,"Lai":5044,"iler":5045,"ằn":5046,"los":5047,"bye":5048,"tuân":5049,"vẹn":5050,"idi":5051,"Thêm":5052,"Lat":5053,"đua":5054,"cow":5055,"indu":5056,"Pol":5057,"nhá":5058,"bơi":5059,"Wed":5060,"vĩ":5061,"repl":5062,"Quả":5063,"quỹ":5064,"Blue":5065,"lợn":5066,"vy":5067,"cua":5068,"soi":5069,"bú":5070,"ngọc":5071,"Aw":5072,"lôi":5073,"lưỡi":5074,"Hệ":5075,"cỡ":5076,"ita":5077,"UN":5078,"wet":5079,"hack":5080,"rung":5081,"Chứ":5082,"Phan":5083,"Van":5084,"Roy":5085,"Hầu":5086,"viet":5087,"Jose":5088,"tháo":5089,"mune":5090,"Noth":5091,"anno":5092,"prov":5093,"mưu":5094,"nhựa":5095,"kèo":5096,"wed":5097,"ench":5098,"chả":5099,"oi":5100,"ja":5101,"lỡ":5102,"Phụ":5103,"itis":5104,"tens":5105,"mồ":5106,"Men":5107,"Phân":5108,"tab":5109,"icky":5110,"Iran":5111,"erly":5112,"laid":5113,"nt":5114,"Del":5115,"imer":5116,"pit":5117,"gối":5118,"lui":5119,"Old":5120,"Cy":5121,"Ga":5122,"rome":5123,"holi":5124,"hoài":5125,"Comp":5126,"Sar":5127,"meal":5128,"Home":5129,"bắp":5130,"pap":5131,"Tor":5132,"ME":5133,"đâm":5134,"Điểm":5135,"đà":5136,"rào":5137,"gory":5138,"tied":5139,"Mis":5140,"tea":5141,"sees":5142,"gap":5143,"seed":5144,"boun":5145,"xóm":5146,"Land":5147,"spin":5148,"thổ":5149,"tial":5150,"Tác":5151,"Yo":5152,"vine":5153,"nọ":5154,"Thể":5155,"kins":5156,"ẵng":5157,"Bí":5158,"Dave":5159,"ius":5160,"suck":5161,"migr":5162,"Khoa":5163,"Mill":5164,"VP":5165,"Ngô":5166,"whom":5167,"sin":5168,"chăn":5169,"mons":5170,"bẩn":5171,"desk":5172,"nuts":5173,"Ze":5174,"rot":5175,"Gold":5176,"tok":5177,"đền":5178,"Máy":5179,"ims":5180,"Cây":5181,"Duy":5182,"tím":5183,"bút":5184,"đan":5185,"đẻ":5186,"Tông":5187,"Sand":5188,"Cháu":5189,"tân":5190,"đáy":5191,"Dịch":5192,"chép":5193,"tron":5194,"gend":5195,"Tô":5196,"trộm":5197,"vân":5198,"Rome":5199,"vast":5200,"trop":5201,"fest":5202,"Đa":5203,"Plan":5204,"Sáu":5205,"Thảo":5206,"khéo":5207,"scar":5208,"Khí":5209,"hydr":5210,"typ":5211,"rier":5212,"Tức":5213,"ani":5214,"Oly":5215,"Bel":5216,"pper":5217,"SD":5218,"Rec":5219,"thri":5220,"nề":5221,"insi":5222,"hide":5223,"bồi":5224,"Sky":5225,"dọa":5226,"chìm":5227,"hypo":5228,"Hold":5229,"HL":5230,"ili":5231,"Bị":5232,"VN":5233,"dish":5234,"mịn":5235,"meta":5236,"Viên":5237,"buôn":5238,"vả":5239,"wine":5240,"lúa":5241,"stab":5242,"umn":5243,"đuôi":5244,"Ima":5245,"Chúc":5246,"soul":5247,"imum":5248,"gal":5249,"thợ":5250,"tape":5251,"Kind":5252,"Đấy":5253,"Phúc":5254,"ươn":5255,"cycl":5256,"thèm":5257,"Lang":5258,"bour":5259,"Pack":5260,"berg":5261,"Bảy":5262,"smil":5263,"Five":5264,"nhầm":5265,"Hoắc":5266,"rốt":5267,"gosh":5268,"PG":5269,"sn":5270,"izza":5271,"vắng":5272,"TT":5273,"Cer":5274,"gánh":5275,"asp":5276,"Espe":5277,"zu":5278,"Cr":5279,"Cung":5280,"Huế":5281,"MA":5282,"Bọn":5283,"belt":5284,"ON":5285,"nêu":5286,"gang":5287,"ném":5288,"unc":5289,"cos":5290,"gut":5291,"lặp":5292,"Giám":5293,"Hope":5294,"chén":5295,"Thư":5296,"thắc":5297,"hẹp":5298,"pig":5299,"phẩy":5300,"shor":5301,"refu":5302,"Win":5303,"bid":5304,"Cup":5305,"barr":5306,"alty":5307,"endo":5308,"phun":5309,"loop":5310,"Pay":5311,"nồng":5312,"coal":5313,"Bang":5314,"jac":5315,"Tues":5316,"nảy":5317,"lùi":5318,"Add":5319,"Cố":5320,"Spor":5321,"ET":5322,"tici":5323,"calm":5324,"ideo":5325,"Sil":5326,"mẻ":5327,"ramp":5328,"nah":5329,"mula":5330,"lộn":5331,"rắc":5332,"Down":5333,"Dũng":5334,"eggs":5335,"gear":5336,"đồn":5337,"Võ":5338,"ST":5339,"bis":5340,"tẩy":5341,"scan":5342,"Beng":5343,"lây":5344,"Book":5345,"hunt":5346,"lord":5347,"hio":5348,"vn":5349,"lon":5350,"acle":5351,"Sta":5352,"Đội":5353,"Tăng":5354,"tỏi":5355,"mac":5356,"Guy":5357,"Greg":5358,"jer":5359,"ùy":5360,"akes":5361,"đắp":5362,"dge":5363,"Kể":5364,"rd":5365,"uine":5366,"rank":5367,"lete":5368,"keys":5369,"dò":5370,"sne":5371,"firm":5372,"Trẻ":5373,"Ohio":5374,"Cool":5375,"rook":5376,"kiếp":5377,"Fl":5378,"HO":5379,"haw":5380,"cend":5381,"Prof":5382,"Has":5383,"GP":5384,"Call":5385,"tori":5386,"quát":5387,"Pers":5388,"magn":5389,"Mag":5390,"Hou":5391,"enab":5392,"aked":5393,"oted":5394,"Fred":5395,"oon":5396,"tháp":5397,"khẩn":5398,"poin":5399,"rein":5400,"đắt":5401,"Use":5402,"oduc":5403,"bble":5404,"mask":5405,"Chào":5406,"cen":5407,"spok":5408,"lawy":5409,"Jour":5410,"Talk":5411,"khói":5412,"illa":5413,"bá":5414,"Liệu":5415,"xơ":5416,"anda":5417,"hỏa":5418,"nạ":5419,"nan":5420,"rực":5421,"sale":5422,"ẻo":5423,"Lễ":5424,"embr":5425,"bowl":5426,"Fal":5427,"mắm":5428,"cuit":5429,"rỡ":5430,"gie":5431,"tứ":5432,"chao":5433,"Giao":5434,"IR":5435,"Luke":5436,"thổi":5437,"Nơi":5438,"mos":5439,"brid":5440,"Rams":5441,"sump":5442,"Dol":5443,"Stan":5444,"cắn":5445,"tims":5446,"rail":5447,"Blo":5448,"wra":5449,"ghép":5450,"toi":5451,"Mean":5452,"nhãn":5453,"Bri":5454,"gạch":5455,"AA":5456,"Bab":5457,"Sum":5458,"Tham":5459,"cắm":5460,"thọ":5461,"cery":5462,"rett":5463,"flex":5464,"Six":5465,"hoá":5466,"nén":5467,"lăn":5468,"nhị":5469,"aret":5470,"Kyle":5471,"Hiệp":5472,"EU":5473,"Jock":5474,"Vol":5475,"Liu":5476,"dắt":5477,"kni":5478,"whel":5479,"ghan":5480,"pup":5481,"Hạnh":5482,"mỉm":5483,"Ci":5484,"igno":5485,"Vĩnh":5486,"Ánh":5487,"unte":5488,"BM":5489,"bê":5490,"Vấn":5491,"đắc":5492,"Nẵng":5493,"Yet":5494,"Loại":5495,"reck":5496,"athy":5497,"tá":5498,"Pac":5499,"Bank":5500,"Hor":5501,"oup":5502,"viễn":5503,"Thai":5504,"odd":5505,"xào":5506,"Tho":5507,"Nào":5508,"jail":5509,"tips":5510,"Jets":5511,"ML":5512,"FF":5513,"isat":5514,"Stud":5515,"Đánh":5516,"oles":5517,"Egy":5518,"Ka":5519,"Cử":5520,"Dom":5521,"elk":5522,"Lấy":5523,"Mày":5524,"bie":5525,"Rock":5526,"ini":5527,"Chân":5528,"GB":5529,"GD":5530,"plo":5531,"chợt":5532,"Hữu":5533,"Cầu":5534,"IA":5535,"inct":5536,"Army":5537,"Loan":5538,"stit":5539,"mini":5540,"Ital":5541,"Đề":5542,"trân":5543,"neu":5544,"izes":5545,"nei":5546,"HLV":5547,"itim":5548,"pháo":5549,"tier":5550,"nếp":5551,"Read":5552,"Cas":5553,"itz":5554,"váy":5555,"Anna":5556,"kilo":5557,"agu":5558,"Âm":5559,"ngầm":5560,"Fort":5561,"Way":5562,"dust":5563,"salt":5564,"hiến":5565,"ãnh":5566,"DA":5567,"đắn":5568,"Wall":5569,"tụi":5570,"bèn":5571,"Nghệ":5572,"trem":5573,"RO":5574,"quét":5575,"vinh":5576,"khẽ":5577,"Rad":5578,"sche":5579,"bội":5580,"vất":5581,"trục":5582,"pg":5583,"Hit":5584,"Jac":5585,"bust":5586,"rose":5587,"ore":5588,"oned":5589,"symb":5590,"Say":5591,"WW":5592,"zona":5593,"Mas":5594,"Far":5595,"Sub":5596,"chẽ":5597,"ốp":5598,"aths":5599,"Tao":5600,"ena":5601,"hiền":5602,"itec":5603,"Kans":5604,"orat":5605,"Bắt":5606,"bùng":5607,"Anth":5608,"whis":5609,"icy":5610,"Hậu":5611,"bike":5612,"bấy":5613,"scal":5614,"ske":5615,"đao":5616,"pipe":5617,"Er":5618,"Nu":5619,"eras":5620,"pam":5621,"iny":5622,"ura":5623,"móng":5624,"Nate":5625,"rhy":5626,"spa":5627,"vary":5628,"cous":5629,"fab":5630,"Squ":5631,"dun":5632,"Đất":5633,"Web":5634,"Demo":5635,"trap":5636,"arts":5637,"Càng":5638,"seek":5639,"Batt":5640,"iana":5641,"dán":5642,"calc":5643,"burg":5644,"lyn":5645,"lio":5646,"Lạc":5647,"lấp":5648,"ặm":5649,"butt":5650,"Đăng":5651,"xíu":5652,"Tần":5653,"Han":5654,"lỏng":5655,"mers":5656,"rek":5657,"jpg":5658,"tank":5659,"dict":5660,"hò":5661,"thìa":5662,"inn":5663,"bốc":5664,"Tar":5665,"cake":5666,"Hal":5667,"rant":5668,"spr":5669,"ava":5670,"giọt":5671,"Kiếm":5672,"Jam":5673,"Bon":5674,"Dall":5675,"sắm":5676,"ện":5677,"beth":5678,"cuts":5679,"trum":5680,"awn":5681,"ngột":5682,"hà":5683,"MO":5684,"abs":5685,"xạ":5686,"Hot":5687,"duty":5688,"Đồ":5689,"rupt":5690,"Ash":5691,"Ray":5692,"tone":5693,"CN":5694,"giam":5695,"đàm":5696,"ghed":5697,"dear":5698,"Vinh":5699,"pron":5700,"ilty":5701,"Damn":5702,"Such":5703,"curs":5704,"xay":5705,"khấu":5706,"EL":5707,"cave":5708,"Quản":5709,"slo":5710,"bug":5711,"runk":5712,"appy":5713,"Tuổi":5714,"Động":5715,"Xe":5716,"pul":5717,"nhở":5718,"Cat":5719,"hằng":5720,"Denn":5721,"obli":5722,"Cá":5723,"org":5724,"lift":5725,"bruh":5726,"dive":5727,"rows":5728,"Fur":5729,"uted":5730,"Food":5731,"ix":5732,"Soci":5733,"đun":5734,"tals":5735,"Tw":5736,"Kỹ":5737,"Had":5738,"mổ":5739,"Drew":5740,"bage":5741,"Gần":5742,"Asia":5743,"fici":5744,"nels":5745,"mượn":5746,"corn":5747,"umps":5748,"Ass":5749,"mood":5750,"Lew":5751,"đãi":5752,"Mont":5753,"UB":5754,"nạp":5755,"Chap":5756,"Holy":5757,"Find":5758,"Sir":5759,"giặt":5760,"Tik":5761,"đảng":5762,"đòn":5763,"tiễn":5764,"yi":5765,"nest":5766,"vây":5767,"igns":5768,"Wild":5769,"bby":5770,"Tú":5771,"dạo":5772,"Căn":5773,"dem":5774,"Sho":5775,"Cát":5776,"exhi":5777,"khe":5778,"Por":5779,"glu":5780,"asis":5781,"Sống":5782,"tồi":5783,"extr":5784,"thắt":5785,"ịt":5786,"veni":5787,"lted":5788,"Tốt":5789,"rr":5790,"CL":5791,"đe":5792,"họng":5793,"GI":5794,"Clu":5795,"jack":5796,"terw":5797,"Open":5798,"pel":5799,"diệu":5800,"wid":5801,"coat":5802,"nap":5803,"Thus":5804,"rers":5805,"Mod":5806,"nộp":5807,"DC":5808,"tàng":5809,"weed":5810,"gho":5811,"emic":5812,"tast":5813,"xỉ":5814,"HIV":5815,"giòn":5816,"VI":5817,"nắp":5818,"Its":5819,"xông":5820,"Đơn":5821,"ngợi":5822,"Bei":5823,"Báo":5824,"mạn":5825,"acqu":5826,"prec":5827,"Kar":5828,"hâm":5829,"Tạo":5830,"imal":5831,"lers":5832,"kệ":5833,"wrap":5834,"bol":5835,"rèn":5836,"woke":5837,"thự":5838,"Tới":5839,"educ":5840,"mầm":5841,"thép":5842,"Tối":5843,"lướt":5844,"shel":5845,"ders":5846,"Los":5847,"dưa":5848,"pace":5849,"Hun":5850,"Reg":5851,"bón":5852,"xả":5853,"manh":5854,"Dev":5855,"khoe":5856,"enor":5857,"Ow":5858,"Lake":5859,"Danh":5860,"ghé":5861,"orit":5862,"dồn":5863,"reme":5864,"mosp":5865,"Hmm":5866,"Know":5867,"tera":5868,"fool":5869,"UR":5870,"Navy":5871,"đống":5872,"rũ":5873,"infe":5874,"ppy":5875,"tò":5876,"MP":5877,"cham":5878,"Thúy":5879,"Vợ":5880,"Biên":5881,"Màu":5882,"Tám":5883,"tray":5884,"Cửu":5885,"fis":5886,"reon":5887,"khôi":5888,"Nghĩ":5889,"boot":5890,"Same":5891,"NBA":5892,"Ill":5893,"Chất":5894,"knee":5895,"attr":5896,"Quỷ":5897,"auty":5898,"reha":5899,"Eric":5900,"clar":5901,"Raid":5902,"tóm":5903,"holy":5904,"mani":5905,"frac":5906,"mũ":5907,"Moun":5908,"Vin":5909,"PM":5910,"sack":5911,"phổi":5912,"dập":5913,"plot":5914,"Run":5915,"Món":5916,"Jews":5917,"End":5918,"dump":5919,"hòn":5920,"nis":5921,"zil":5922,"Pa":5923,"pled":5924,"Dec":5925,"ache":5926,"dong":5927,"hái":5928,"phs":5929,"muse":5930,"khuy":5931,"vily":5932,"bắc":5933,"gall":5934,"Andy":5935,"Cast":5936,"Hợp":5937,"đoạt":5938,"Hán":5939,"Tru":5940,"sue":5941,"Xi":5942,"nôn":5943,"Bull":5944,"tần":5945,"Sản":5946,"gely":5947,"pus":5948,"ýt":5949,"andy":5950,"xích":5951,"blog":5952,"Lar":5953,"Fire":5954,"var":5955,"ole":5956,"Luôn":5957,"dốc":5958,"mg":5959,"vỗ":5960,"TI":5961,"pac":5962,"rồng":5963,"hors":5964,"hiếu":5965,"enh":5966,"dặn":5967,"cans":5968,"Elec":5969,"bực":5970,"đứt":5971,"oral":5972,"HT":5973,"kiệt":5974,"Tot":5975,"zard":5976,"cúi":5977,"cats":5978,"Rõ":5979,"HA":5980,"tong":5981,"uten":5982,"Echo":5983,"elly":5984,"aded":5985,"rộn":5986,"nhặt":5987,"bb":5988,"Hổ":5989,"Cục":5990,"Hard":5991,"Trà":5992,"sail":5993,"rie":5994,"chas":5995,"Lợi":5996,"hở":5997,"tile":5998,"mâu":5999,"ongo":6000,"duck":6001,"Ooh":6002,"rice":6003,"Fa":6004,"Ori":6005,"vách":6006,"menu":6007,"uish":6008,"Mời":6009,"dũng":6010,"Ce":6011,"visi":6012,"xăng":6013,"gõ":6014,"erne":6015,"cởi":6016,"exha":6017,"Đêm":6018,"som":6019,"Boy":6020,"bind":6021,"tent":6022,"Pit":6023,"kí":6024,"Mau":6025,"bể":6026,"Đinh":6027,"cúng":6028,"EM":6029,"Mộc":6030,"logo":6031,"eles":6032,"hét":6033,"rs":6034,"Nhớ":6035,"coop":6036,"Viêm":6037,"phan":6038,"Mạnh":6039,"Ji":6040,"Camp":6041,"voi":6042,"None":6043,"nâu":6044,"Dy":6045,"lồng":6046,"Club":6047,"nốt":6048,"tum":6049,"Bru":6050,"Cody":6051,"lem":6052,"Paim":6053,"oter":6054,"Giúp":6055,"Kiều":6056,"tuit":6057,"mốc":6058,"PD":6059,"asts":6060,"hoc":6061,"eman":6062,"tel":6063,"Nhu":6064,"Hiểu":6065,"dic":6066,"synd":6067,"wis":6068,"Hell":6069,"Kiểm":6070,"CC":6071,"Rose":6072,"Băng":6073,"Buff":6074,"enjo":6075,"Stop":6076,"cia":6077,"lăng":6078,"tore":6079,"Lịch":6080,"trội":6081,"cure":6082,"Die":6083,"edi":6084,"cạn":6085,"Lệ":6086,"Ali":6087,"Chín":6088,"vĩnh":6089,"Giữa":6090,"Bat":6091,"Tỉnh":6092,"cryp":6093,"cute":6094,"flew":6095,"Hằng":6096,"otes":6097,"Flo":6098,"Cli":6099,"Zach":6100,"lật":6101,"ếch":6102,"gaz":6103,"Huh":6104,"drew":6105,"nod":6106,"pand":6107,"ela":6108,"SI":6109,"nháy":6110,"Gard":6111,"Mang":6112,"Bor":6113,"pra":6114,"chậu":6115,"khía":6116,"Nghị":6117,"navi":6118,"Maho":6119,"tube":6120,"odds":6121,"gai":6122,"Hỏa":6123,"bite":6124,"Nhạc":6125,"TA":6126,"Sher":6127,"eria":6128,"heli":6129,"gons":6130,"gián":6131,"Đạt":6132,"sper":6133,"chel":6134,"hil":6135,"prop":6136,"hít":6137,"Kiến":6138,"cum":6139,"tear":6140,"Shan":6141,"Biển":6142,"Ford":6143,"pm":6144,"tral":6145,"PR":6146,"thô":6147,"izon":6148,"OR":6149,"dẹp":6150,"idly":6151,"Dai":6152,"châm":6153,"beef":6154,"đụng":6155,"khao":6156,"Độc":6157,"ulum":6158,"Vit":6159,"Bush":6160,"brut":6161,"dire":6162,"utch":6163,"gũi":6164,"grid":6165,"Khắc":6166,"DJ":6167,"mảng":6168,"Đan":6169,"đai":6170,"max":6171,"rend":6172,"rix":6173,"guid":6174,"dã":6175,"Dri":6176,"uate":6177,"phơi":6178,"dại":6179,"cành":6180,"wore":6181,"Kat":6182,"Bus":6183,"Mem":6184,"sie":6185,"CA":6186,"dens":6187,"Ener":6188,"addy":6189,"đồi":6190,"Set":6191,"ngào":6192,"cue":6193,"chém":6194,"Xong":6195,"ưởi":6196,"vươn":6197,"fron":6198,"Ara":6199,"chớp":6200,"rior":6201,"llec":6202,"hoại":6203,"Khả":6204,"rễ":6205,"cere":6206,"sele":6207,"Beli":6208,"Lỗ":6209,"Word":6210,"sta":6211,"aint":6212,"vag":6213,"Ren":6214,"thew":6215,"ku":6216,"sờ":6217,"Art":6218,"Tem":6219,"fits":6220,"sụp":6221,"Post":6222,"Kế":6223,"soạn":6224,"ader":6225,"BO":6226,"KH":6227,"Fer":6228,"Thất":6229,"peak":6230,"Hur":6231,"Chia":6232,"beer":6233,"upd":6234,"flix":6235,"kĩ":6236,"mí":6237,"Pen":6238,"judg":6239,"News":6240,"onds":6241,"Ôn":6242,"Đặt":6243,"sio":6244,"Carr":6245,"Mở":6246,"lis":6247,"Fox":6248,"tiệm":6249,"CEO":6250,"Phía":6251,"Hung":6252,"Thơ":6253,"Care":6254,"Sus":6255,"yell":6256,"bì":6257,"node":6258,"Lộc":6259,"Son":6260,"Test":6261,"Sách":6262,"zzle":6263,"chảo":6264,"tick":6265,"dội":6266,"gạt":6267,"Ire":6268,"nhịn":6269,"Bồ":6270,"Ur":6271,"mặn":6272,"rape":6273,"xôi":6274,"loa":6275,"xoa":6276,"Year":6277,"lộc":6278,"Ted":6279,"Bad":6280,"Bàn":6281,"Cry":6282,"Free":6283,"trâu":6284,"hàn":6285,"buff":6286,"Gun":6287,"cháo":6288,"brow":6289,"Kir":6290,"amed":6291,"Tha":6292,"mông":6293,"LED":6294,"simp":6295,"mel":6296,"quạt":6297,"ora":6298,"ghê":6299,"seas":6300,"mòn":6301,"Đô":6302,"cuộn":6303,"AFC":6304,"Kn":6305,"bóp":6306,"bun":6307,"wich":6308,"Bánh":6309,"lens":6310,"tê":6311,"luộc":6312,"xế":6313,"phím":6314,"Port":6315,"cock":6316,"gãy":6317,"Lear":6318,"Didn":6319,"Jal":6320,"Cons":6321,"Đàn":6322,"sym":6323,"vã":6324,"WWE":6325,"fee":6326,"Lab":6327,"bỏng":6328,"đắng":6329,"gừng":6330,"chê":6331,"suối":6332,"cai":6333,"vặt":6334,"Gal":6335,"Ku":6336,"bai":6337,"Spr":6338,"plu":6339,"Bé":6340,"ngốc":6341,"suic":6342,"ráo":6343,"bran":6344,"blu":6345,"lane":6346,"rear":6347,"mono":6348,"sult":6349,"fant":6350,"Đáng":6351,"chằm":6352,"gác":6353,"vacy":6354,"Khác":6355,"Tùy":6356,"nhục":6357,"plug":6358,"Trả":6359,"dàn":6360,"lõi":6361,"ngô":6362,"onda":6363,"dở":6364,"lơ":6365,"Were":6366,"ighb":6367,"Vạn":6368,"anne":6369,"mega":6370,"Gor":6371,"Từng":6372,"nang":6373,"nhăn":6374,"Alab":6375,"CR":6376,"lọt":6377,"Sức":6378,"iffe":6379,"gods":6380,"Yến":6381,"dirt":6382,"Team":6383,"Tàu":6384,"cin":6385,"stad":6386,"snap":6387,"eed":6388,"erce":6389,"Try":6390,"ĐT":6391,"sate":6392,"Lên":6393,"hụt":6394,"irat":6395,"Seth":6396,"Tỷ":6397,"bong":6398,"bags":6399,"Gala":6400,"kar":6401,"lips":6402,"Isn":6403,"lót":6404,"Java":6405,"Tai":6406,"ugly":6407,"sanh":6408,"EC":6409,"voc":6410,"nuốt":6411,"Đọc":6412,"Trở":6413,"enzy":6414,"pete":6415,"Lạt":6416,"chè":6417,"thir":6418,"gli":6419,"Trí":6420,"Glo":6421,"chup":6422,"Chan":6423,"Pur":6424,"rim":6425,"Đều":6426,"oner":6427,"abol":6428,"Link":6429,"dâng":6430,"slee":6431,"Mô":6432,"trật":6433,"sưng":6434,"Penn":6435,"rus":6436,"tol":6437,"lds":6438,"Nay":6439,"Spea":6440,"lũy":6441,"Mom":6442,"fus":6443,"folk":6444,"asks":6445,"vịt":6446,"Vụ":6447,"ngụ":6448,"thon":6449,"Cav":6450,"Mẫu":6451,"túng":6452,"blew":6453,"cers":6454,"ored":6455,"NFC":6456,"Safe":6457,"colo":6458,"Fan":6459,"obs":6460,"sườn":6461,"chốc":6462,"ooh":6463,"Tun":6464,"Fri":6465,"nhức":6466,"Us":6467,"idat":6468,"Py":6469,"bến":6470,"Fair":6471,"magi":6472,"EN":6473,"chay":6474,"matt":6475,"đầm":6476,"Lập":6477,"Nằm":6478,"McD":6479,"nig":6480,"ềng":6481,"pest":6482,"Cri":6483,"ngục":6484,"Met":6485,"nick":6486,"Ôi":6487,"phế":6488,"mony":6489,"Fall":6490,"ego":6491,"pad":6492,"FA":6493,"Mit":6494,"Cửa":6495,"Eld":6496,"MC":6497,"ouch":6498,"Data":6499,"vard":6500,"scor":6501,"NO":6502,"phia":6503,"Jake":6504,"Mùa":6505,"UV":6506,"  ":6507,"ửng":6508,"SEAL":6509,"Nông":6510,"Tùng":6511,"cig":6512,"Las":6513,"cống":6514,"Pak":6515,"XS":6516,"iste":6517,"cược":6518,"xà":6519,"Pad":6520,"ador":6521,"Ei":6522,"Bối":6523,"nô":6524,"trơn":6525,"Ap":6526,"sạc":6527,"bôi":6528,"teed":6529,"sake":6530,"thal":6531,"jam":6532,"Ngũ":6533,"USA":6534,"Đỗ":6535,"eigh":6536,"Lâu":6537,"Pot":6538,"awa":6539,"Dak":6540,"rụng":6541,"lít":6542,"shr":6543,"Ele":6544,"dup":6545,"ette":6546,"Work":6547,"đỗ":6548,"đúc":6549,"soc":6550,"bars":6551,"Coll":6552,"SO":6553,"Lady":6554,"mỏ":6555,"flav":6556,"bã":6557,"pens":6558,"múa":6559,"ngự":6560,"Muse":6561,"biz":6562,"ua":6563,"ithm":6564,"nhã":6565,"Cà":6566,"cỗ":6567,"kẽ":6568,"lánh":6569,"mage":6570,"cane":6571,"khép":6572,"sul":6573,"Gl":6574,"ergr":6575,"subs":6576,"seal":6577,"tú":6578,"kn":6579,"Bell":6580,"stor":6581,"thản":6582,"Sĩ":6583,"UBND":6584,"Pop":6585,"ceil":6586,"III":6587,"đạm":6588,"khâu":6589,"Case":6590,"sket":6591,"ngây":6592,"Lực":6593,"Mul":6594,"mond":6595,"amie":6596,"labe":6597,"isa":6598,"lứa":6599,"mắng":6600,"Hỏi":6601,"axit":6602,"tles":6603,"onso":6604,"Arab":6605,"kit":6606,"Much":6607,"VR":6608,"fees":6609,"oker":6610,"bẩm":6611,"elf":6612,"pink":6613,"Fami":6614,"jet":6615,"rays":6616,"xám":6617,"ems":6618,"Quay":6619,"Sang":6620,"Psy":6621,"Thừa":6622,"chui":6623,"Bio":6624,"cụm":6625,"athe":6626,"Jane":6627,"Dig":6628,"Pas":6629,"Ron":6630,"Tour":6631,"leaf":6632,"Úc":6633,"Hang":6634,"Guys":6635,"LE":6636,"Mong":6637,"Lôi":6638,"nail":6639,"hông":6640,"aska":6641,"lipp":6642,"mium":6643,"yoga":6644,"dỗ":6645,"cựu":6646,"túy":6647,"rol":6648,"LO":6649,"wipe":6650,"MI":6651,"ngứa":6652,"itar":6653,"đuối":6654,"dãy":6655,"thầu":6656,"chen":6657,"lê":6658,"Diệp":6659,"xổ":6660,"Thâm":6661,"dặm":6662,"sỹ":6663,"iles":6664,"ùn":6665,"Ever":6666,"lime":6667,"Hết":6668,"sẹo":6669,"bump":6670,"òm":6671,"Đâu":6672,"HS":6673,"NS":6674,"alt":6675,"Full":6676,"cám":6677,"Bes":6678,"sels":6679,"Hic":6680,"Arch":6681,"Mars":6682,"ube":6683,"cose":6684,"PO":6685,"dar":6686,"Bách":6687,"cope":6688,"Cre":6689,"eak":6690,"Too":6691,"chọc":6692,"Xây":6693,"lum":6694,"whoa":6695,"ghen":6696,"mum":6697,"chìa":6698,"Fac":6699,"Khó":6700,"lạm":6701,"bơm":6702,"Diệu":6703,"Oli":6704,"fru":6705,"Giảm":6706,"Fore":6707,"gly":6708,"Ore":6709,"tết":6710,"impl":6711,"Gir":6712,"dẻo":6713,"Econ":6714,"Vo":6715,"bế":6716,"kẹo":6717,"ophi":6718,"USB":6719,"Pic":6720,"trạm":6721,"pix":6722,"porn":6723,"dose":6724,"ez":6725,"Kiên":6726,"Iron":6727,"Nhã":6728,"aps":6729,"Thổ":6730,"Chế":6731,"Kiểu":6732,"rip":6733,"vứt":6734,"Phục":6735,"Gì":6736,"Wood":6737,"Hoài":6738,"léo":6739,"muội":6740,"yze":6741,"bass":6742,"vet":6743,"sume":6744,"Cook":6745,"điềm":6746,"nn":6747,"vung":6748,"hoi":6749,"aria":6750,"lầu":6751,"thly":6752,"Nhóm":6753,"Help":6754,"dual":6755,"shed":6756,"RI":6757,"Uống":6758,"mato":6759,"DO":6760,"adop":6761,"Leg":6762,"Stay":6763,"pile":6764,"Lòng":6765,"gìn":6766,"củng":6767,"aii":6768,"Dad":6769,"Hone":6770,"gle":6771,"nứt":6772,"outr":6773,"bies":6774,"QU":6775,"maps":6776,"bury":6777,"Kính":6778,"cõi":6779,"trễ":6780,"Anne":6781,"NC":6782,"fum":6783,"bic":6784,"cắp":6785,"hoan":6786,"utic":6787,"worn":6788,"Mua":6789,"Tứ":6790,"Und":6791,"craw":6792,"kẹt":6793,"đắm":6794,"ưỡi":6795,"ola":6796,"unex":6797,"bóc":6798,"Buc":6799,"jur":6800,"mộc":6801,"xuôi":6802,"Bóng":6803,"nut":6804,"đếm":6805,"Tes":6806,"Đứng":6807,"tọa":6808,"irm":6809,"xé":6810,"phor":6811,"Ít":6812,"Gary":6813,"NASA":6814,"Hiệu":6815,"llen":6816,"lux":6817,"Ak":6818,"dial":6819,"upst":6820,"khơi":6821,"Dor":6822,"Jen":6823,"Pick":6824,"vals":6825,"lize":6826,"pets":6827,"sque":6828,"inhi":6829,"Dem":6830,"xen":6831,"Dĩ":6832,"mies":6833,"awk":6834,"Budd":6835,"thur":6836,"ngẫu":6837,"esis":6838,"Nope":6839,"tà":6840,"mold":6841,"Boom":6842,"ibil":6843,"DS":6844,"dì":6845,"đè":6846,"ux":6847,"dium":6848,"né":6849,"dồi":6850,"trĩ":6851,"nến":6852,"Jon":6853,"mia":6854,"aka":6855,"MB":6856,"Eve":6857,"Buổi":6858,"avi":6859,"wick":6860,"rog":6861,"util":6862,"wand":6863,"uyễn":6864,"Sc":6865,"bừng":6866,"pour":6867,"rope":6868,"Trị":6869,"thốt":6870,"Ngư":6871,"Thụy":6872,"Cro":6873,"yy":6874,"Xuất":6875,"Live":6876,"nêm":6877,"Đưa":6878,"Alan":6879,"mồi":6880,"mari":6881,"Soi":6882,"rapp":6883,"sút":6884,"Hiền":6885,"Figu":6886,"Zeal":6887,"Bye":6888,"Dead":6889,"jest":6890,"Nint":6891,"Leon":6892,"Áo":6893,"slot":6894,"tơ":6895,"diam":6896,"Oppe":6897,"sink":6898,"prev":6899,"shu":6900,"cafe":6901,"ahan":6902,"cớ":6903,"vú":6904,"Best":6905,"trọ":6906,"wolf":6907,"Pass":6908,"sốc":6909,"brew":6910,"Kam":6911,"olly":6912,"Wars":6913,"ov":6914,"ione":6915,"Jr":6916,"oms":6917,"nám":6918,"tưới":6919,"giơ":6920,"đệm":6921,"deer":6922,"ival":6923,"bổng":6924,"bets":6925,"dol":6926,"FBI":6927,"chẩn":6928,"Ot":6929,"hash":6930,"trán":6931,"tạ":6932,"Hon":6933,"Usu":6934,"hưu":6935,"rét":6936,"RS":6937,"hắc":6938,"mãnh":6939,"osis":6940,"Road":6941,"trắc":6942,"Dark":6943,"smar":6944,"pric":6945,"HI":6946,"kỵ":6947,"chy":6948,"bold":6949,"mice":6950,"choo":6951,"rẽ":6952,"ende":6953,"CT":6954,"Toán":6955,"wars":6956,"xách":6957,"AMD":6958,"AE":6959,"stun":6960,"bách":6961,"irs":6962,"inse":6963,"mast":6964,"CB":6965,"chur":6966,"Auto":6967,"arat":6968,"tựu":6969,"pir":6970,"Bry":6971,"pee":6972,"adds":6973,"gray":6974,"Ngồi":6975,"fate":6976,"õm":6977,"Suy":6978,"lone":6979,"Mir":6980,"mpic":6981,"Quận":6982,"dash":6983,"lvan":6984,"gel":6985,"uuh":6986,"ngắt":6987,"ruin":6988,"span":6989,"mam":6990,"Yout":6991,"chớ":6992,"Head":6993,"Awes":6994,"Chel":6995,"kel":6996,"kiềm":6997,"Rem":6998,"Amy":6999,"dare":7000,"gắt":7001,"Hop":7002,"măng":7003,"foss":7004,"Roll":7005,"thỏ":7006,"FI":7007,"Yan":7008,"crop":7009,"tify":7010,"Dun":7011,"Pap":7012,"rebu":7013,"mare":7014,"efly":7015,"xăm":7016,"ashi":7017,"sưu":7018,"đư":7019,"gil":7020,"trim":7021,"ifer":7022,"Ye":7023,"iat":7024,"Jagu":7025,"dys":7026,"rug":7027,"Anti":7028,"Huệ":7029,"Wy":7030,"zom":7031,"trùm":7032,"niêm":7033,"uel":7034,"oán":7035,"Fund":7036,"thoa":7037,"Thịt":7038,"Cul":7039,"Zo":7040,"izen":7041,"vasc":7042,"eric":7043,"MD":7044,"bẫy":7045,"plas":7046,"apt":7047,"Tòa":7048,"Whoa":7049,"xưng":7050,"Dal":7051,"etly":7052,"bọt":7053,"wan":7054,"bồ":7055,"mùng":7056,"sầu":7057,"Gre":7058,"nhọn":7059,"inha":7060,"Kill":7061,"mập":7062,"ptic":7063,"chửi":7064,"Orle":7065,"tt":7066,"han":7067,"bush":7068,"Lind":7069,"côn":7070,"Đá":7071,"thám":7072,"tide":7073,"Mắt":7074,"Napo":7075,"Xã":7076,"Lào":7077,"unh":7078,"Wu":7079,"đạc":7080,"Lao":7081,"Dần":7082,"Oper":7083,"đặn":7084,"reek":7085,"Jona":7086,"Vàng":7087,"vạch":7088,"mall":7089,"apps":7090,"RAM":7091,"ila":7092,"lus":7093,"bean":7094,"phos":7095,"sits":7096,"tụng":7097,"Rel":7098,"beta":7099,"Key":7100,"Mơ":7101,"PV":7102,"Uy":7103,"dor":7104,"bén":7105,"Lucy":7106,"hh":7107,"DI":7108,"Os":7109,"cọ":7110,"poe":7111,"toss":7112,"skip":7113,"nds":7114,"lars":7115,"việt":7116,"rệt":7117,"liếc":7118,"vọt":7119,"Hỗ":7120,"nab":7121,"una":7122,"Thor":7123,"Kẻ":7124,"Năng":7125,"Phủ":7126,"pute":7127,"Vua":7128,"Isa":7129,"hố":7130,"điền":7131,"Raw":7132,"Hiếu":7133,"peer":7134,"umin":7135,"ambi":7136,"Baby":7137,"dino":7138,"mart":7139,"bẩy":7140,"gầy":7141,"bún":7142,"hệt":7143,"Ven":7144,"ván":7145,"mud":7146,"Bán":7147,"Dầu":7148,"Lãnh":7149,"tire":7150,"vặn":7151,"php":7152,"keo":7153,"bend":7154,"blan":7155,"lặn":7156,"CPU":7157,"auth":7158,"xì":7159,"khốn":7160,"Cực":7161,"muôn":7162,"dete":7163,"Cop":7164,"GS":7165,"lac":7166,"Viết":7167,"bồn":7168,"Đau":7169,"gieo":7170,"chật":7171,"GDP":7172,"NT":7173,"oty":7174,"atte":7175,"vuốt":7176,"zel":7177,"Mah":7178,"ngó":7179,"Tấn":7180,"Giai":7181,"cước":7182,"anni":7183,"chew":7184,"Spir":7185,"mild":7186,"Cru":7187,"kic":7188,"tiff":7189,"CJ":7190,"Town":7191,"đục":7192,"cáp":7193,"buck":7194,"Wis":7195,"báu":7196,"hé":7197,"rats":7198,"vở":7199,"cảng":7200,"bias":7201,"bn":7202,"khử":7203,"Thí":7204,"Sai":7205,"Ice":7206,"Xô":7207,"onel":7208,"Ngôn":7209,"Jess":7210,"coln":7211,"fitt":7212,"Dao":7213,"Cars":7214,"apse":7215,"Brad":7216,"sest":7217,"dope":7218,"Lead":7219,"Gam":7220,"wage":7221,"Doc":7222,"Ưu":7223,"uc":7224,"slam":7225,"repr":7226,"dưng":7227,"Kay":7228,"Sony":7229,"yến":7230,"đinh":7231,"nell":7232,"Foot":7233,"oli":7234,"xá":7235,"Rick":7236,"void":7237,"ngẩn":7238,"erpr":7239,"yep":7240,"Ứng":7241,"Spec":7242,"Vật":7243,"Bla":7244,"Nar":7245,"đùi":7246,"quer":7247,"Vận":7248,"vie":7249,"Phys":7250,"Mươi":7251,"unde":7252,"rách":7253,"cart":7254,"heck":7255,"ouds":7256,"defe":7257,"GM":7258,"boil":7259,"ũa":7260,"Gọi":7261,"bàng":7262,"Vui":7263,"thic":7264,"vắt":7265,"lột":7266,"tước":7267,"Đời":7268,"isit":7269,"phì":7270,"Diễn":7271,"sếp":7272,"ụa":7273,"tale":7274,"cort":7275,"echo":7276,"oan":7277,"epy":7278,"ÔNG":7279,"hiếp":7280,"bee":7281,"giặc":7282,"Cuốn":7283,"lọ":7284,"drag":7285,"Sab":7286,"lờ":7287,"Es":7288,"rỗng":7289,"geon":7290,"Chad":7291,"lấn":7292,"taxi":7293,"thm":7294,"Less":7295,"mồm":7296,"Fish":7297,"nigg":7298,"Ferr":7299,"Bùi":7300,"von":7301,"EA":7302,"Ext":7303,"nons":7304,"semi":7305,"mole":7306,"vibe":7307,"nản":7308,"Libr":7309,"Mess":7310,"ngõ":7311,"Dick":7312,"dê":7313,"rưỡi":7314,"abul":7315,"rito":7316,"Thọ":7317,"sach":7318,"gau":7319,"iner":7320,"chôn":7321,"hoãn":7322,"cali":7323,"mush":7324,"tăm":7325,"AJ":7326,"obst":7327,"soup":7328,"stam":7329,"juni":7330,"cóc":7331,"SS":7332,"rủ":7333,"TX":7334,"Spo":7335,"Der":7336,"ún":7337,"Hea":7338,"bộc":7339,"hm":7340,"sói":7341,"Trey":7342,"tren":7343,"hou":7344,"grey":7345,"QL":7346,"ogra":7347,"aris":7348,"exit":7349,"Bỏ":7350,"Cập":7351,"roph":7352,"vờ":7353,"ffle":7354,"vớt":7355,"đấm":7356,"kề":7357,"Bá":7358,"Prab":7359,"chin":7360,"hăng":7361,"nấy":7362,"stag":7363,"esar":7364,"lics":7365,"Dựa":7366,"Fast":7367,"vắc":7368,"Jean":7369,"cưng":7370,"nhấp":7371,"Bích":7372,"Vệ":7373,"Agen":7374,"rỉ":7375,"ilds":7376,"Tĩnh":7377,"ơm":7378,"Week":7379,"oton":7380,"deta":7381,"Ball":7382,"moni":7383,"Moon":7384,"ritu":7385,"Mind":7386,"Liễu":7387,"Kirk":7388,"sons":7389,"Gặp":7390,"Kích":7391,"Kit":7392,"gum":7393,"lst":7394,"hype":7395,"Giáp":7396,"clim":7397,"chốn":7398,"Gã":7399,"đậy":7400,"lười":7401,"icon":7402,"Okla":7403,"Tớ":7404,"ngỡ":7405,"toan":7406,"tùng":7407,"toe":7408,"scre":7409,"shoe":7410,"rảnh":7411,"ctic":7412,"kis":7413,"dos":7414,"Khởi":7415,"Az":7416,"Kid":7417,"mot":7418,"Mes":7419,"đưc":7420,"ãm":7421,"zoom":7422,"Mine":7423,"leak":7424,"emen":7425,"lesh":7426,"admi":7427,"oul":7428,"tram":7429,"homa":7430,"ille":7431,"Hz":7432,"xót":7433,"Thử":7434,"Cẩm":7435,"MVP":7436,"Zero":7437,"xài":7438,"quấy":7439,"gran":7440,"Tan":7441,"pond":7442,"aer":7443,"Bỗng":7444,"lanh":7445,"Soon":7446,"ÊN":7447,"Mùi":7448,"Dược":7449,"Gri":7450,"Grey":7451,"LS":7452,"juj":7453,"Pra":7454,"aqu":7455,"endy":7456,"hước":7457,"Quán":7458,"seng":7459,"Tống":7460,"aden":7461,"Dee":7462,"Said":7463,"tops":7464,"Kỷ":7465,"Mức":7466,"cops":7467,"IDS":7468,"Rằng":7469,"râu":7470,"ngơ":7471,"gầm":7472,"nếm":7473,"vóc":7474,"toes":7475,"cano":7476,"ngần":7477,"súc":7478,"unqu":7479,"Sign":7480,"Vài":7481,"Thức":7482,"Cấp":7483,"pse":7484,"Rho":7485,"scul":7486,"McC":7487,"Note":7488,"cồn":7489,"neat":7490,"luân":7491,"pH":7492,"Writ":7493,"VA":7494,"ensu":7495,"URL":7496,"dney":7497,"alli":7498,"quỳ":7499,"mats":7500,"Him":7501,"Điền":7502,"xô":7503,"vise":7504,"Main":7505,"nin":7506,"wart":7507,"xon":7508,"tah":7509,"clay":7510,"homo":7511,"fili":7512,"RA":7513,"Sát":7514,"LI":7515,"Lạp":7516,"fart":7517,"glow":7518,"spar":7519,"View":7520,"Cel":7521,"rit":7522,"UC":7523,"bệ":7524,"toy":7525,"oft":7526,"visa":7527,"Rap":7528,"ngạo":7529,"gig":7530,"mois":7531,"phô":7532,"nhát":7533,"Ev":7534,"Hand":7535,"iPad":7536,"quấn":7537,"Wolf":7538,"mist":7539,"RNA":7540,"thối":7541,"poo":7542,"EDH":7543,"lén":7544,"ươm":7545,"ngất":7546,"aire":7547,"gục":7548,"euro":7549,"Diện":7550,"aims":7551,"băm":7552,"nhổ":7553,"Wei":7554,"kiêu":7555,"Ask":7556,"yl":7557,"Made":7558,"Snow":7559,"Phá":7560,"nati":7561,"OC":7562,"Gro":7563,"Yup":7564,"Toy":7565,"slip":7566,"Lá":7567,"Lộ":7568,"Đặng":7569,"pell":7570,"THE":7571,"asha":7572,"Viễn":7573,"sial":7574,"irds":7575,"sỏi":7576,"phis":7577,"dock":7578,"Duke":7579,"frag":7580,"Dòng":7581,"Ross":7582,"acre":7583,"Serv":7584,"mph":7585,"thề":7586,"Hong":7587,"bỉ":7588,"Đấu":7589,"Shad":7590,"xí":7591,"cium":7592,"Cit":7593,"sni":7594,"inet":7595,"Giữ":7596,"Cavs":7597,"Tải":7598,"nàn":7599,"Giấy":7600,"Nin":7601,"Trận":7602,"xide":7603,"quir":7604,"Cai":7605,"Tro":7606,"robi":7607,"kìa":7608,"avo":7609,"Xét":7610,"acco":7611,"gniz":7612,"mẹo":7613,"Cole":7614,"nhủ":7615,"agon":7616,"cti":7617,"Pier":7618,"plum":7619,"ulf":7620,"ww":7621,"mài":7622,"CLB":7623,"Kong":7624,"Áp":7625,"ipul":7626,"axis":7627,"mâm":7628,"ales":7629,"clue":7630,"arre":7631,"ló":7632,"ee":7633,"thed":7634,"Pos":7635,"jaw":7636,"twel":7637,"Ay":7638,"kful":7639,"nhọc":7640,"Cinc":7641,"nch":7642,"neys":7643,"ciat":7644,"Gil":7645,"lân":7646,"SP":7647,"rels":7648,"Earl":7649,"cối":7650,"SC":7651,"Gon":7652,"ovan":7653,"tui":7654,"pson":7655,"Phù":7656,"EF":7657,"ften":7658,"gấu":7659,"Chăm":7660,"Bảng":7661,"leon":7662,"lou":7663,"lội":7664,"sher":7665,"pale":7666,"moi":7667,"THPT":7668,"uled":7669,"Biểu":7670,"Jenn":7671,"EPA":7672,"dâm":7673,"acce":7674,"airy":7675,"băn":7676,"khỉ":7677,"usty":7678,"kiss":7679,"pole":7680,"vian":7681,"dum":7682,"bark":7683,"Plat":7684,"kép":7685,"mere":7686,"Fun":7687,"lãm":7688,"Ef":7689,"kìm":7690,"Luân":7691,"rớt":7692,"elev":7693,"hưng":7694,"Nic":7695,"leap":7696,"ắk":7697,"aned":7698,"gào":7699,"shin":7700,"GO":7701,"Coi":7702,"Khai":7703,"isha":7704,"đũa":7705,"toys":7706,"nedy":7707,"sâm":7708,"khoẻ":7709,"tánh":7710,"sừng":7711,"Eu":7712,"Yi":7713,"alit":7714,"Kids":7715,"Pope":7716,"miêu":7717,"Bữa":7718,"iac":7719,"Suốt":7720,"agra":7721,"Xbox":7722,"há":7723,"Code":7724,"fs":7725,"pine":7726,"pol":7727,"Shu":7728,"immi":7729,"Lớp":7730,"Nig":7731,"gees":7732,"Đậu":7733,"sibi":7734,"fati":7735,"Gene":7736,"chet":7737,"Sad":7738,"Sac":7739,"fox":7740,"Pep":7741,"hup":7742,"Clau":7743,"cấy":7744,"đính":7745,"Đoạn":7746,"lách":7747,"urb":7748,"Hắc":7749,"Cầm":7750,"Les":7751,"vâng":7752,"zhe":7753,"sipp":7754,"mund":7755,"apor":7756,"LD":7757,"riel":7758,"NX":7759,"Mach":7760,"Non":7761,"mượt":7762,"clam":7763,"Nvid":7764,"fled":7765,"vam":7766,"đọng":7767,"crat":7768,"Swi":7769,"Ox":7770,"Đảo":7771,"jar":7772,"info":7773,"ựu":7774,"rens":7775,"Ir":7776,"Môi":7777,"Đứa":7778,"Swed":7779,"nộ":7780,"peti":7781,"VD":7782,"tát":7783,"mont":7784,"Half":7785,"ngẫm":7786,"enix":7787,"kham":7788,"Len":7789,"Sk":7790,"Đột":7791,"Chờ":7792,"hạch":7793,"NIC":7794,"úm":7795,"viv":7796,"Rang":7797,"reno":7798,"gom":7799,"vụn":7800,"Mất":7801,"digg":7802,"mier":7803,"Dro":7804,"Nine":7805,"Pear":7806,"Siêu":7807,"ớc":7808,"Went":7809,"nhai":7810,"DM":7811,"Fat":7812,"HC":7813,"gậy":7814,"nham":7815,"umes":7816,"dào":7817,"rod":7818,"jan":7819,"Low":7820,"Shop":7821,"rode":7822,"Tuần":7823,"AIDS":7824,"Đàm":7825,"sorb":7826,"lays":7827,"oro":7828,"Mack":7829,"junc":7830,"soda":7831,"adi":7832,"Xác":7833,"oks":7834,"Biến":7835,"Bát":7836,"Cut":7837,"Rid":7838,"Fla":7839,"Mạc":7840,"ogy":7841,"hãm":7842,"deem":7843,"epid":7844,"lở":7845,"bugs":7846,"Mật":7847,"Ngôi":7848,"Zhu":7849,"aes":7850,"tags":7851,"ifi":7852,"rane":7853,"zens":7854,"Ther":7855,"Chạy":7856,"obes":7857,"iTun":7858,"warn":7859,"epic":7860,"VPN":7861,"giã":7862,"Pau":7863,"Miz":7864,"cke":7865,"oxid":7866,"rể":7867,"đoan":7868,"MU":7869,"sku":7870,"sấy":7871,"Mông":7872,"hán":7873,"Abra":7874,"Vill":7875,"rea":7876,"oked":7877,"cac":7878,"vành":7879,"Sims":7880,"ein":7881,"Ấy":7882,"ngửa":7883,"vòi":7884,"Fro":7885,"cừ":7886,"unne":7887,"vacu":7888,"GA":7889,"Smo":7890,"soli":7891,"bast":7892,"spat":7893,"Kur":7894,"flop":7895,"FO":7896,"jung":7897,"Deep":7898,"Thẩm":7899,"Nai":7900,"ladd":7901,"Đám":7902,"Trải":7903,"vít":7904,"usal":7905,"quad":7906,"sofa":7907,"NI":7908,"Uber":7909,"PE":7910,"Gab":7911,"enna":7912,"bron":7913,"nish":7914,"Lựa":7915,"Mộng":7916,"SEO":7917,"Sơ":7918,"đố":7919,"sét":7920,"TE":7921,"Zone":7922,"Trấn":7923,"tice":7924,"gus":7925,"tomy":7926,"aler":7927,"UY":7928,"Trúc":7929,"xoáy":7930,"vác":7931,"Age":7932,"Dong":7933,"thà":7934,"rics":7935,"umbs":7936,"lazy":7937,"nhôm":7938,"bey":7939,"bris":7940,"enda":7941,"Tích":7942,"Tiết":7943,"Cham":7944,"pple":7945,"fies":7946,"Ret":7947,"nano":7948,"iser":7949,"Hear":7950,"FDA":7951,"Hạn":7952,"Rach":7953,"Vốn":7954,"Hàm":7955,"piss":7956,"sued":7957,"arer":7958,"Ký":7959,"Ring":7960,"sigh":7961,"drum":7962,"noi":7963,"HR":7964,"otic":7965,"heel":7966,"tril":7967,"Ja":7968,"xua":7969,"ras":7970,"lụa":7971,"tản":7972,"nged":7973,"DR":7974,"kẹp":7975,"allo":7976,"Indi":7977,"fung":7978,"Syl":7979,"Hạt":7980,"Cir":7981,"Nash":7982,"verb":7983,"brac":7984,"bưởi":7985,"cows":7986,"đờ":7987,"Buck":7988,"Dễ":7989,"hốt":7990,"miên":7991,"cult":7992,"Eat":7993,"Emi":7994,"pros":7995,"aku":7996,"Cou":7997,"Rex":7998,"modu":7999,"lind":8000,"khốc":8001,"giò":8002,"fric":8003,"Jun":8004,"pent":8005,"leen":8006,"owa":8007,"ranh":8008,"metr":8009,"Tháp":8010,"Chết":8011,"OK":8012,"rut":8013,"Sav":8014,"xịt":8015,"tivi":8016,"Dean":8017,"SN":8018,"đàng":8019,"Thú":8020,"mie":8021,"uset":8022,"Niên":8023,"pene":8024,"cach":8025,"Đáp":8026,"Khám":8027,"Đẹp":8028,"Acti":8029,"ptor":8030,"Gà":8031,"Rand":8032,"Ugh":8033,"Wiki":8034,"Shar":8035,"tuc":8036,"oids":8037,"Hum":8038,"khan":8039,"GPU":8040,"Pin":8041,"Cánh":8042,"gò":8043,"Unit":8044,"Bir":8045,"cs":8046,"hem":8047,"Cold":8048,"Hosp":8049,"HP":8050,"seve":8051,"mino":8052,"Jaco":8053,"fea":8054,"eps":8055,"пg":8056,"dece":8057,"Todd":8058,"Kate":8059,"liễu":8060,"pays":8061,"Bến":8062,"Grow":8063,"hờ":8064,"PDF":8065,"Hoạt":8066,"Lẽ":8067,"Flow":8068,"Move":8069,"pops":8070,"bổn":8071,"ire":8072,"ụn":8073,"bùn":8074,"Apo":8075,"đới":8076,"alk":8077,"ulus":8078,"icit":8079,"Egyp":8080,"náo":8081,"Béo":8082,"IM":8083,"pler":8084,"zzy":8085,"nhóc":8086,"mock":8087,"bees":8088,"cage":8089,"TTO":8090,"sti":8091,"Phy":8092,"chói":8093,"NAME":8094,"Nỗi":8095,"Kei":8096,"Chỗ":8097,"Vòng":8098,"dice":8099,"Buy":8100,"ngấm":8101,"Bear":8102,"tary":8103,"enni":8104,"Trăm":8105,"Lie":8106,"jeal":8107,"Rau":8108,"Điển":8109,"Clo":8110,"toát":8111,"cert":8112,"gàng":8113,"xao":8114,"tạng":8115,"epi":8116,"hier":8117,"Bern":8118,"poem":8119,"soap":8120,"Utah":8121,"LL":8122,"Near":8123,"elle":8124,"Bul":8125,"khay":8126,"solo":8127,"Agr":8128,"Lot":8129,"Đợi":8130,"reje":8131,"odic":8132,"ffs":8133,"dess":8134,"lass":8135,"rải":8136,"Zen":8137,"cols":8138,"căm":8139,"Guan":8140,"mits":8141,"reo":8142,"Fut":8143,"Mãi":8144,"Tyr":8145,"kie":8146,"jiu":8147,"Bis":8148,"vẫy":8149,"stum":8150,"Mans":8151,"Dest":8152,"bara":8153,"jing":8154,"quầy":8155,"Ward":8156,"rin":8157,"ando":8158,"torn":8159,"cler":8160,"Lớn":8161,"Tran":8162,"Box":8163,"reau":8164,"hong":8165,"calo":8166,"urn":8167,"Nhị":8168,"NICK":8169,"Bha":8170,"Hunt":8171,"ngậm":8172,"Vùng":8173,"riot":8174,"preh":8175,"Ark":8176,"Canh":8177,"thét":8178,"dell":8179,"Area":8180,"Jud":8181,"bian":8182,"lóc":8183,"Emp":8184,"GPS":8185,"Vene":8186,"thê":8187,"Dĩnh":8188,"kỉ":8189,"trèo":8190,"leng":8191},"merges":[["t","h"],["n","g"],["a","n"],["th","e"],["r","e"],["o","u"],["a","t"],["i","n"],["o","n"],["c","h"],["n","h"],["e","r"],["t","o"],["i","ng"],["e","n"],["i","s"],["a","l"],["i","t"],["s","t"],["o","r"],["an","d"],["t","r"],["o","f"],["e","d"],["a","s"],["a","r"],["y","ou"],["e","s"],["h","e"],["l","e"],["l","i"],["m","e"],["o","w"],["th","at"],["k","h"],["a","y"],["s","e"],["k","e"],["b","e"],["t","i"],["v","e"],["l","y"],["h","i"],["h","a"],["r","o"],["w","e"],["g","i"],["ô","ng"],["p","h"],["l","à"],["l","l"],["s","o"],["a","c"],["o","t"],["q","u"],["ê","n"],["li","ke"],["g","h"],["i","d"],["n","d"],["w","h"],["i","c"],["c","o"],["f","or"],["v","er"],["v","à"],["u","t"],["l","d"],["l","o"],["ư","ờ"],["w","as"],["en","t"],["c","á"],["c","ó"],["i","on"],["w","i"],["r","a"],["n","ow"],["d","o"],["g","o"],["a","u"],["ou","t"],["g","e"],["d","e"],["u","y"],["T","h"],["a","b"],["r","i"],["a","m"],["ộ","t"],["c","ủ"],["ớ","i"],["củ","a"],["a","re"],["gh","t"],["ư","ợ"],["ấ","t"],["t","a"],["th","is"],["on","e"],["m","o"],["u","st"],["ì","nh"],["al","l"],["c","on"],["k","now"],["T","he"],["p","e"],["n","e"],["s","u"],["ạ","i"],["m","ột"],["a","d"],["A","nd"],["i","r"],["i","ệ"],["wi","th"],["c","e"],["ườ","i"],["the","y"],["h","o"],["ế","t"],["ha","ve"],["f","e"],["ch","o"],["m","a"],["à","y"],["o","ng"],["al","ly"],["t","er"],["o","d"],["t","e"],["ô","i"],["ế","n"],["ượ","c"],["j","ust"],["u","s"],["ou","ld"],["i","f"],["u","n"],["c","an"],["n","ot"],["đ","ược"],["s","a"],["ề","u"],["â","n"],["ạ","n"],["p","ro"],["wh","at"],["e","a"],["o","p"],["ữ","ng"],["ầ","n"],["S","o"],["u","r"],["co","m"],["b","ut"],["p","l"],["the","r"],["e","m"],["nh","ư"],["so","me"],["đ","i"],["cá","c"],["an","t"],["u","h"],["b","i"],["er","s"],["ge","t"],["an","h"],["u","p"],["in","k"],["ả","i"],["o","k"],["ư","ớ"],["ư","ơ"],["th","ể"],["ấ","y"],["e","x"],["he","re"],["p","o"],["v","ới"],["i","l"],["I","t"],["at","e"],["m","y"],["ou","r"],["n","ày"],["a","ng"],["in","d"],["á","c"],["u","l"],["n","ó"],["you","r"],["es","s"],["s","h"],["i","m"],["ver","y"],["au","se"],["â","y"],["đ","ã"],["ac","k"],["Y","ou"],["w","or"],["in","h"],["re","s"],["b","ạn"],["m","à"],["ti","on"],["m","an"],["đ","ó"],["đ","ể"],["ũ","ng"],["c","k"],["C","h"],["ar","d"],["v","i"],["ườ","ng"],["ro","m"],["w","ay"],["u","ố"],["n","o"],["t","s"],["t","u"],["hi","ệ"],["à","nh"],["d","on"],["m","ent"],["ướ","c"],["nh","i"],["kh","i"],["s","ẽ"],["f","rom"],["ươ","ng"],["th","ì"],["ờ","i"],["ú","ng"],["c","a"],["c","ũng"],["ầ","u"],["p","er"],["o","l"],["à","ng"],["ự","c"],["g","a"],["c","ả"],["ha","d"],["p","p"],["l","ại"],["ứ","c"],["t","ôi"],["ar","t"],["m","ình"],["en","d"],["à","n"],["đ","ộ"],["e","l"],["ch","i"],["à","i"],["n","a"],["b","y"],["it","y"],["W","e"],["là","m"],["ậ","n"],["ơ","n"],["h","ọ"],["đ","ến"],["u","m"],["e","ar"],["op","le"],["the","n"],["re","d"],["ậ","t"],["ù","ng"],["h","is"],["a","i"],["f","o"],["g","ot"],["wh","en"],["s","i"],["c","i"],["we","re"],["s","ay"],["H","e"],["ả","n"],["í","nh"],["N","h"],["ea","h"],["v","en"],["cá","i"],["l","u"],["c","t"],["the","m"],["ph","ải"],["ă","ng"],["ow","n"],["i","ght"],["in","e"],["à","o"],["mo","re"],["wh","o"],["và","o"],["d","i"],["k","ing"],["a","st"],["t","ừ"],["b","o"],["ou","nd"],["ề","n"],["ố","i"],["t","y"],["k","i"],["d","id"],["v","ề"],["be","c"],["ti","me"],["ă","m"],["ou","gh"],["s","ố"],["ồ","i"],["u","ng"],["ế","u"],["an","y"],["ă","n"],["or","t"],["w","hi"],["id","e"],["w","ant"],["B","ut"],["U","h"],["v","iệ"],["ằ","ng"],["á","t"],["Th","at"],["s","ự"],["ò","n"],["ng","h"],["â","u"],["re","n"],["w","o"],["h","ow"],["e","t"],["hi","m"],["b","ack"],["W","h"],["a","o"],["ou","s"],["e","p"],["d","ay"],["ch","ỉ"],["việ","c"],["to","r"],["c","ông"],["f","i"],["ê","u"],["re","at"],["lo","ok"],["wi","ll"],["g","uy"],["ion","s"],["Y","eah"],["ồ","ng"],["me","an"],["nó","i"],["h","as"],["ú","c"],["s","p"],["á","i"],["T","r"],["đ","ầu"],["is","t"],["y","ear"],["th","o"],["of","f"],["se","e"],["pl","ay"],["t","al"],["ing","s"],["it","t"],["á","ng"],["g","on"],["m","u"],["b","ị"],["be","en"],["í","ch"],["go","od"],["b","er"],["ắ","c"],["h","ơn"],["ắ","t"],["o","ver"],["ụ","c"],["o","m"],["r","ất"],["ữ","a"],["a","g"],["th","ế"],["ab","le"],["in","to"],["á","ch"],["ổ","i"],["ậ","p"],["b","u"],["p","le"],["re","e"],["it","e"],["d","u"],["g","ì"],["ô","n"],["â","m"],["th","i"],["c","òn"],["e","st"],["đ","ị"],["th","ấy"],["tr","ên"],["ặ","t"],["ư","a"],["ẫ","n"],["s","he"],["The","y"],["á","n"],["I","n"],["ộ","i"],["L","i"],["sa","id"],["th","an"],["ặ","c"],["u","nd"],["n","ên"],["n","ào"],["ò","ng"],["nh","à"],["b","le"],["hiệ","n"],["ha","i"],["h","er"],["wor","k"],["ậ","y"],["ac","e"],["st","u"],["p","re"],["k","ind"],["g","r"],["uy","ệ"],["d","ụ"],["ộ","c"],["ạ","o"],["á","nh"],["i","es"],["ơ","i"],["l","ot"],["ti","ế"],["th","u"],["ic","k"],["i","ll"],["iệ","n"],["bi","ết"],["a","p"],["t","ing"],["f","f"],["ou","n"],["nh","ất"],["độ","ng"],["ả","o"],["ể","n"],["d","is"],["cá","ch"],["as","s"],["c","u"],["ir","st"],["t","wo"],["ti","c"],["an","s"],["ứ","ng"],["m","at"],["s","au"],["iệ","t"],["đi","ều"],["e","ver"],["c","ần"],["qu","an"],["ic","e"],["ne","ed"],["p","r"],["th","r"],["ể","u"],["v","ing"],["tr","i"],["a","ge"],["á","p"],["d","own"],["N","g"],["P","h"],["we","ll"],["á","o"],["l","ên"],["ng","ày"],["họ","c"],["a","in"],["ượ","ng"],["ma","ke"],["n","ăm"],["al","so"],["r","ồi"],["r","u"],["kh","ác"],["co","me"],["ne","w"],["o","b"],["g","u"],["m","ay"],["t","in"],["ố","t"],["dụ","ng"],["ố","ng"],["ắ","n"],["Th","is"],["p","ut"],["ê","m"],["e","ven"],["od","y"],["nh","ân"],["l","itt"],["ể","m"],["tr","y"],["ư","ng"],["ọ","i"],["đ","ây"],["g","n"],["ga","in"],["s","pe"],["ac","t"],["as","e"],["mo","st"],["l","a"],["c","ùng"],["qu","y"],["be","t"],["se","l"],["uố","n"],["đ","ang"],["at","ed"],["the","o"],["th","ời"],["m","ới"],["ạ","nh"],["K","h"],["v","es"],["le","t"],["ấ","p"],["is","h"],["uyệ","n"],["v","ì"],["in","t"],["en","ce"],["d","if"],["po","s"],["f","u"],["th","ực"],["đị","nh"],["b","r"],["n","ước"],["c","ô"],["fo","re"],["ấ","n"],["b","ody"],["ỏ","i"],["ạ","t"],["ti","m"],["r","y"],["Li","ke"],["re","ad"],["do","es"],["or","d"],["t","ại"],["a","f"],["ư","ở"],["v","ậy"],["ar","y"],["Wh","at"],["ro","ng"],["ac","tu"],["an","ce"],["ọ","ng"],["i","z"],["ưở","ng"],["gi","a"],["com","m"],["it","s"],["mu","ch"],["n","ing"],["i","ve"],["qu","a"],["uy","ên"],["in","c"],["w","at"],["ì","n"],["ợ","p"],["ren","t"],["c","ơ"],["a","ch"],["ga","me"],["m","in"],["cả","m"],["p","res"],["ngh","ĩ"],["kh","o"],["p","s"],["f","ul"],["p","ar"],["h","ay"],["ta","ke"],["u","re"],["h","ợp"],["h","àng"],["on","ly"],["ha","pp"],["c","all"],["gi","ờ"],["g","ra"],["l","ớ"],["nh","ận"],["s","c"],["t","ự"],["a","h"],["uh","m"],["e","f"],["ọ","n"],["sh","ow"],["ấ","u"],["s","inh"],["m","uốn"],["fe","el"],["re","st"],["I","f"],["r","ằng"],["way","s"],["p","ort"],["Uh","m"],["to","o"],["h","ình"],["v","ed"],["s","er"],["e","w"],["c","ess"],["e","c"],["G","i"],["ú","t"],["đ","ồng"],["ả","ng"],["did","n"],["N","o"],["ị","ch"],["T","ôi"],["sa","o"],["re","al"],["n","ăng"],["sel","f"],["f","in"],["t","ur"],["m","ặt"],["a","k"],["ỗ","i"],["d","es"],["ừ","a"],["bi","g"],["ệ","nh"],["lo","ng"],["ồ","n"],["c","l"],["b","it"],["V","à"],["l","ý"],["số","ng"],["s","ide"],["he","l"],["ắ","ng"],["ca","o"],["en","s"],["v","ẫn"],["al","s"],["O","h"],["m","s"],["ent","s"],["á","m"],["ử","a"],["m","on"],["ú","p"],["tal","k"],["qu","á"],["t","ới"],["gi","an"],["p","art"],["g","en"],["ừ","ng"],["l","ow"],["x","u"],["le","ar"],["u","se"],["ph","át"],["p","ers"],["m","ed"],["l","at"],["n","ữa"],["b","ằng"],["ươ","i"],["s","y"],["n","i"],["man","y"],["h","ành"],["đ","ối"],["t","âm"],["u","e"],["ta","in"],["ẳ","ng"],["c","oun"],["tiế","p"],["m","er"],["t","ình"],["a","v"],["b","a"],["ic","al"],["tr","a"],["ả","m"],["ạ","ng"],["su","re"],["li","c"],["ố","c"],["m","i"],["s","to"],["qu","ả"],["uố","ng"],["guy","s"],["A","l"],["b","ản"],["m","en"],["e","v"],["r","un"],["o","h"],["c","ứ"],["gi","úp"],["li","fe"],["v","ị"],["fu","ck"],["Q","u"],["x","t"],["t","ay"],["m","ar"],["me","m"],["en","ti"],["b","l"],["lớ","n"],["ng","o"],["e","k"],["đ","ều"],["ch","ị"],["b","ab"],["d","ự"],["gi","á"],["b","as"],["nh","ìn"],["ậ","u"],["at","t"],["tr","ở"],["H","o"],["g","y"],["f","t"],["s","ử"],["l","and"],["c","er"],["t","ạo"],["th","ứ"],["cu","ộc"],["to","àn"],["t","ốt"],["ì","m"],["b","ên"],["l","ast"],["ạ","ch"],["c","ar"],["nh","au"],["ả","nh"],["kh","ó"],["as","on"],["O","k"],["ầ","m"],["te","ll"],["th","ân"],["ẩ","m"],["M","ột"],["ph","ần"],["us","ed"],["k","ết"],["We","ll"],["l","úc"],["b","ảo"],["l","ess"],["wh","y"],["A","nh"],["b","ao"],["th","ức"],["đi","ểm"],["m","is"],["ard","s"],["m","ọi"],["n","ay"],["vi","ên"],["hi","gh"],["hel","p"],["á","y"],["a","ir"],["we","ek"],["ar","i"],["t","ính"],["te","am"],["ở","i"],["ver","s"],["ho","ặc"],["Ok","ay"],["se","t"],["ướ","ng"],["ea","ah"],["sa","me"],["co","l"],["c","ent"],["tor","y"],["tur","n"],["su","r"],["ọ","c"],["con","d"],["com","p"],["đ","o"],["l","ần"],["y","êu"],["b","ộ"],["n","ếu"],["C","ó"],["ã","y"],["ma","de"],["f","un"],["n","at"],["ả","y"],["ó","ng"],["m","ẹ"],["f","ind"],["ợ","i"],["D","o"],["h","u"],["đ","ề"],["in","te"],["s","s"],["en","se"],["an","k"],["hiệ","u"],["t","ìm"],["ắ","m"],["b","ệnh"],["k","es"],["an","o"],["T","i"],["ẩ","n"],["c","es"],["i","a"],["A","n"],["ễ","n"],["c","ur"],["ch","ưa"],["v","ide"],["he","ad"],["l","ực"],["s","ản"],["t","ác"],["ố","n"],["ạ","c"],["ve","l"],["l","ine"],["N","ếu"],["o","ld"],["c","al"],["lo","ại"],["r","is"],["n","um"],["th","ou"],["h","and"],["at","es"],["ph","í"],["ch","ất"],["d","ùng"],["l","es"],["as","k"],["á","u"],["w","ent"],["ti","ve"],["uố","c"],["ad","d"],["lu","ôn"],["ci","al"],["c","lo"],["t","ư"],["H","ow"],["as","h"],["s","ing"],["xu","ất"],["i","g"],["ti","ền"],["d","ân"],["p","u"],["b","all"],["h","ết"],["ch","e"],["k","inh"],["ch","í"],["h","ội"],["am","i"],["ộ","ng"],["ca","me"],["b","ắt"],["y","eah"],["ặ","p"],["t","en"],["d","ư"],["ne","xt"],["gi","ve"],["gi","ới"],["ư","u"],["N","am"],["lo","ve"],["h","ỏi"],["one","y"],["b","ất"],["th","ị"],["bo","ok"],["hiệ","p"],["S","he"],["l","ời"],["th","ật"],["v","is"],["ch","ủ"],["c","are"],["m","ắt"],["c","at"],["st","em"],["a","w"],["c","ầu"],["K","hi"],["ô","m"],["a","pp"],["ầ","y"],["in","s"],["ch","u"],["hi","ểu"],["l","ist"],["p","t"],["y","s"],["gi","ải"],["v","ừa"],["pre","t"],["t","ế"],["th","êm"],["v","al"],["c","y"],["m","il"],["or","s"],["ph","áp"],["ó","a"],["Wh","en"],["x","em"],["S","t"],["a","th"],["ou","se"],["g","an"],["c","our"],["al","th"],["ul","ar"],["ar","ch"],["on","s"],["N","ow"],["in","st"],["ti","êu"],["tr","ị"],["n","er"],["uố","i"],["ma","ng"],["h","ệ"],["t","ổ"],["đ","ổi"],["per","i"],["I","s"],["c","âu"],["ke","ep"],["stu","d"],["is","e"],["p","hi"],["ẹ","p"],["to","p"],["é","t"],["li","ệ"],["t","ập"],["f","r"],["đ","ại"],["uy","ền"],["c","r"],["ó","c"],["v","ụ"],["c","ấp"],["ho","me"],["ti","ên"],["f","ri"],["h","ard"],["be","st"],["d","ra"],["ho","àn"],["t","ăng"],["ok","ay"],["b","à"],["p","ow"],["s","ức"],["c","us"],["C","ác"],["tr","ẻ"],["nh","ỏ"],["ấ","m"],["l","t"],["c","ed"],["ch","ọn"],["v","ô"],["hi","p"],["th","ủ"],["C","on"],["ca","st"],["x","e"],["s","áng"],["res","s"],["su","ch"],["li","e"],["f","our"],["F","or"],["i","ld"],["đ","ánh"],["T","o"],["l","ar"],["le","c"],["d","one"],["si","ve"],["b","iệt"],["tu","re"],["ng","he"],["t","ài"],["b","re"],["R","e"],["m","ươi"],["V","iệt"],["c","re"],["s","m"],["R","o"],["kh","u"],["uy","ển"],["p","ri"],["A","s"],["ng","hi"],["ea","ch"],["w","a"],["it","u"],["v","ật"],["b","ro"],["on","d"],["th","ay"],["l","ed"],["f","ami"],["ế","m"],["g","er"],["k","ỳ"],["ph","ẩm"],["s","cho"],["it","ed"],["iệ","u"],["w","in"],["v","ấn"],["m","ạnh"],["are","n"],["đ","âu"],["ế","p"],["su","b"],["l","òng"],["s","im"],["ct","ed"],["l","it"],["ki","ll"],["b","ỏ"],["we","en"],["í","t"],["v","id"],["e","ld"],["ng","ay"],["Đ","i"],["g","ặp"],["h","óa"],["li","ên"],["t","on"],["k","ế"],["t","ất"],["si","gn"],["j","o"],["ạ","y"],["i","gn"],["từ","ng"],["b","é"],["re","c"],["ke","t"],["ve","lo"],["ứ","a"],["su","pp"],["l","ấy"],["for","m"],["ir","d"],["er","st"],["a","way"],["m","áy"],["pl","an"],["c","or"],["vi","ew"],["am","es"],["d","a"],["liệ","u"],["N","ó"],["ạ","m"],["đ","ời"],["p","i"],["d","ri"],["S","au"],["s","ort"],["đ","ẹp"],["b","ình"],["tr","í"],["d","ễ"],["r","õ"],["ic","i"],["d","ẫn"],["n","ơi"],["đ","ưa"],["c","ou"],["ar","s"],["B","ec"],["th","ôi"],["en","ed"],["ut","e"],["le","ad"],["đ","úng"],["c","ri"],["k","id"],["t","ích"],["s","ho"],["bo","th"],["le","g"],["s","ách"],["B","ạn"],["b","us"],["de","f"],["st","er"],["ắ","p"],["end","s"],["ch","ar"],["bi","ến"],["qu","i"],["ll","ow"],["c","le"],["wor","d"],["de","c"],["B","r"],["b","ad"],["in","ce"],["m","ất"],["v","u"],["ế","c"],["f","ar"],["f","ac"],["n","ess"],["L","o"],["fe","w"],["if","ic"],["C","o"],["mo","ve"],["st","ru"],["M","o"],["p","ay"],["ằ","m"],["l","ã"],["ter","s"],["iệ","m"],["re","g"],["uy","ết"],["G","o"],["c","ra"],["m","ỗi"],["ro","om"],["é","p"],["d","ịch"],["gi","ảm"],["fi","ve"],["p","at"],["w","r"],["b","ài"],["h","ắn"],["B","e"],["sh","it"],["đ","ơn"],["b","lo"],["mà","u"],["e","as"],["đ","ủ"],["tu","ổi"],["ỉ","nh"],["c","àng"],["m","ind"],["er","at"],["co","ol"],["s","on"],["C","hi"],["ch","ân"],["s","ha"],["s","ion"],["đ","iện"],["ch","ế"],["đ","ất"],["T","hi"],["ho","ạt"],["g","ần"],["ch","ức"],["w","ar"],["m","p"],["ang","e"],["ex","am"],["g","ọi"],["es","e"],["th","am"],["tr","ăm"],["say","s"],["Đ","ể"],["s","át"],["on","es"],["n","u"],["w","al"],["ca","p"],["A","mer"],["c","am"],["con","s"],["gi","ữa"],["v","ol"],["L","et"],["t","ục"],["b","an"],["ch","ơi"],["đ","ặc"],["cả","nh"],["ph","ụ"],["el","se"],["l","ập"],["to","w"],["ề","m"],["hiệ","m"],["ặ","ng"],["đ","ặt"],["se","em"],["j","e"],["us","h"],["đ","ình"],["c","ây"],["ma","in"],["ó","n"],["b","áo"],["c","ard"],["s","ed"],["ã","i"],["L","à"],["d","at"],["A","ll"],["f","act"],["J","ust"],["f","a"],["b","ởi"],["Th","ì"],["h","ãy"],["kh","ả"],["t","ên"],["de","al"],["mu","a"],["na","me"],["n","am"],["l","ợi"],["gi","ao"],["s","ĩ"],["g","re"],["e","y"],["er","al"],["d","ài"],["dư","ới"],["k","s"],["ch","ú"],["f","ace"],["ph","ân"],["ậ","m"],["x","ác"],["g","ây"],["n","ữ"],["p","ass"],["se","en"],["or","y"],["D","e"],["M","y"],["c","ửa"],["d","ù"],["g","g"],["te","ch"],["đị","a"],["du","de"],["was","n"],["ab","il"],["le","ft"],["V","ì"],["t","re"],["fe","ct"],["phí","a"],["he","ar"],["o","s"],["te","st"],["ro","ss"],["sa","w"],["gi","ả"],["ex","p"],["ch","ed"],["ra","ng"],["j","ob"],["đ","ồ"],["ant","s"],["O","r"],["kh","í"],["li","on"],["ự","a"],["th","ần"],["c","ase"],["b","ước"],["U","n"],["O","n"],["go","es"],["T","uy"],["m","or"],["h","ôm"],["đ","ạo"],["ck","s"],["So","me"],["h","al"],["o","c"],["N","guy"],["cứ","u"],["M","i"],["S","e"],["b","uy"],["v","ir"],["ul","at"],["t","ử"],["st","e"],["c","ố"],["n","ed"],["st","re"],["E","m"],["um","p"],["p","a"],["c","ổ"],["ê","ng"],["h","y"],["li","ve"],["Ô","ng"],["O","ne"],["fe","c"],["n","y"],["b","án"],["ne","t"],["ki","ến"],["J","o"],["T","u"],["m","ở"],["t","inh"],["Al","ri"],["x","ã"],["N","ew"],["n","or"],["ho","a"],["M","a"],["ch","ết"],["ic","s"],["ar","k"],["b","àn"],["c","li"],["to","ge"],["y","ếu"],["tor","s"],["d","ing"],["ti","ến"],["ch","ắc"],["ò","a"],["tr","ả"],["f","ic"],["ch","a"],["a","ve"],["c","ậu"],["are","d"],["m","ức"],["spe","c"],["to","ok"],["ho","ld"],["ac","ti"],["z","e"],["pp","ed"],["P","e"],["ra","in"],["l","in"],["m","es"],["st","r"],["chi","a"],["ó","m"],["lo","gy"],["res","p"],["gi","áo"],["p","or"],["g","in"],["ve","st"],["ph","ục"],["to","ld"],["p","ic"],["so","l"],["c","ực"],["m","ười"],["C","ô"],["ti","l"],["on","ce"],["hal","f"],["day","s"],["h","ạn"],["p","ick"],["ng","u"],["al","e"],["ngh","ệ"],["Q","uốc"],["st","at"],["ser","v"],["b","ed"],["l","âu"],["đ","ấy"],["id","ea"],["Đ","ây"],["ti","ết"],["op","en"],["is","su"],["fo","ot"],["f","ree"],["v","ăn"],["fo","od"],["i","an"],["A","t"],["d","am"],["p","od"],["h","our"],["Đi","ều"],["ad","v"],["Y","es"],["gr","ow"],["chị","u"],["ge","st"],["kh","ỏi"],["độ","i"],["x","a"],["get","s"],["C","om"],["on","t"],["ch","út"],["la","w"],["m","ù"],["ble","m"],["m","ust"],["ki","a"],["M","ay"],["z","y"],["gi","ữ"],["d","ur"],["đ","au"],["r","ow"],["i","ma"],["s","ở"],["t","ối"],["p","op"],["k","é"],["vu","i"],["e","i"],["nh","ớ"],["tr","ol"],["đ","áng"],["c","uối"],["gr","ou"],["t","ức"],["C","an"],["d","d"],["uyệ","t"],["w","ard"],["v","ệ"],["n","ội"],["ĩ","nh"],["pe","ct"],["m","ục"],["it","ch"],["k","ỹ"],["no","th"],["g","ái"],["P","ro"],["à","u"],["re","se"],["b","ers"],["W","i"],["w","on"],["is","ts"],["de","p"],["ll","s"],["A","r"],["n","ổi"],["b","ố"],["ki","ểm"],["dat","a"],["b","lic"],["re","ct"],["tr","ợ"],["Th","ế"],["du","c"],["dự","ng"],["t","ed"],["f","re"],["w","he"],["d","iện"],["uy","ến"],["ỡ","ng"],["s","ợ"],["đ","ấu"],["qu","al"],["s","ắc"],["k","en"],["qu","ốc"],["đ","ứng"],["di","ễn"],["m","ấy"],["W","hi"],["đ","ầy"],["v","ực"],["for","t"],["v","ẻ"],["tr","o"],["iz","ed"],["V","i"],["qu","en"],["d","er"],["e","at"],["h","it"],["c","ung"],["d","ro"],["ượ","t"],["ic","es"],["N","ot"],["si","x"],["b","ur"],["m","inh"],["iz","e"],["Th","en"],["qu","ân"],["r","an"],["gi","ác"],["V","ới"],["j","u"],["d","r"],["lo","gi"],["b","s"],["Ch","ỉ"],["c","au"],["ri","es"],["c","ạnh"],["te","m"],["je","ct"],["l","ay"],["ch","ứ"],["sa","ng"],["th","s"],["l","ing"],["x","ây"],["con","f"],["B","o"],["i","e"],["x","in"],["wa","it"],["l","ịch"],["k","ể"],["s","hi"],["h","ộ"],["on","al"],["a","go"],["ữ","u"],["Đ","ó"],["ic","an"],["qu","ý"],["gra","m"],["u","res"],["v","ari"],["v","o"],["c","ụ"],["in","f"],["c","ười"],["l","s"],["vi","ết"],["ver","n"],["ú","i"],["t","ỉnh"],["b","or"],["ẫ","u"],["en","er"],["ob","vi"],["ac","c"],["is","m"],["C","ho"],["C","òn"],["đ","àn"],["re","ce"],["p","ur"],["qu","ar"],["m","us"],["co","st"],["l","ẽ"],["he","y"],["s","uy"],["tr","ời"],["am","a"],["đ","ôi"],["ke","y"],["ki","ếm"],["c","ul"],["ph","ố"],["b","ốn"],["ồ","m"],["M","ỹ"],["ch","ạy"],["ng","ồi"],["C","ông"],["và","i"],["ll","ed"],["m","ón"],["n","on"],["qu","ay"],["â","ng"],["b","al"],["i","al"],["The","o"],["đ","ạt"],["ow","s"],["p","ain"],["ẩ","y"],["re","su"],["ng","ủ"],["r","at"],["d","ung"],["s","ci"],["ti","es"],["f","ast"],["k","iện"],["s","or"],["x","ảy"],["con","t"],["b","ác"],["p","ed"],["in","a"],["c","ut"],["chí","n"],["an","na"],["su","c"],["it","al"],["n","àng"],["C","ar"],["k","new"],["wal","k"],["kh","á"],["o","se"],["m","id"],["st","ay"],["d","y"],["kh","ỏ"],["l","au"],["un","ch"],["p","ot"],["ty","pe"],["h","ồi"],["b","ar"],["b","ây"],["v","ợ"],["tr","ò"],["H","ai"],["ch","ỗ"],["b","óng"],["g","es"],["m","ạng"],["tr","u"],["so","ci"],["h","ỗ"],["khỏ","e"],["al","le"],["n","ice"],["l","an"],["ch","an"],["tr","ue"],["pr","of"],["e","ng"],["Wi","th"],["ho","pe"],["u","al"],["Wh","y"],["gi","r"],["r","id"],["T","ừ"],["E","x"],["fu","ll"],["T","a"],["th","ư"],["s","k"],["l","ắm"],["tr","ái"],["M","ình"],["D","u"],["B","u"],["H","à"],["un","i"],["st","ep"],["độ","c"],["l","ệ"],["m","ul"],["ou","th"],["p","ast"],["H","ọ"],["qu","e"],["n","ằm"],["l","ưu"],["L","u"],["kid","s"],["ph","ản"],["ap","pe"],["qu","ản"],["M","ar"],["t","it"],["v","ọng"],["C","ái"],["t","ố"],["bi","l"],["G","od"],["ed","u"],["ans","w"],["v","ùng"],["f","er"],["j","ec"],["l","ate"],["s","le"],["đ","ảm"],["b","en"],["ght","s"],["N","go"],["U","S"],["m","al"],["đo","ạn"],["l","ish"],["c","ăn"],["b","ay"],["ic","a"],["ur","al"],["o","me"],["are","a"],["sa","fe"],["tr","ận"],["ti","ệ"],["g","ồm"],["s","itu"],["pl","ac"],["h","or"],["h","ữu"],["e","le"],["dra","w"],["nh","ập"],["th","ử"],["ep","is"],["g","s"],["M","à"],["x","úc"],["J","oh"],["I","nd"],["s","âu"],["f","all"],["đ","á"],["fi","gu"],["lo","y"],["í","n"],["d","uy"],["im","p"],["mo","de"],["ot","e"],["ce","pt"],["l","ựa"],["st","ar"],["e","lec"],["lớ","p"],["sto","p"],["ph","ù"],["c","ư"],["kh","ai"],["c","as"],["u","su"],["h","ot"],["và","ng"],["L","e"],["mo","ng"],["kh","ăn"],["de","ck"],["h","ind"],["V","ậy"],["h","ồ"],["ó","i"],["Joh","n"],["a","il"],["M","an"],["fi","re"],["H","i"],["su","m"],["gi","ản"],["y","et"],["po","st"],["li","m"],["i","ous"],["h","ơi"],["sa","i"],["r","ộng"],["x","ong"],["H","ãy"],["ra","p"],["P","hi"],["nh","u"],["tr","ai"],["th","ất"],["nh","é"],["Nh","ư"],["đ","ọc"],["J","u"],["d","ành"],["M","r"],["ha","ng"],["è","o"],["s","ẻ"],["ter","m"],["c","ity"],["B","i"],["ị","p"],["D","on"],["li","es"],["ic","at"],["iz","at"],["se","ll"],["ot","s"],["v","it"],["c","ộng"],["t","ỷ"],["as","ed"],["in","ts"],["d","anh"],["ph","á"],["p","es"],["tr","ực"],["u","ro"],["ph","út"],["oun","t"],["ph","ys"],["f","an"],["me","et"],["w","ind"],["lu","ận"],["ộ","n"],["z","ing"],["H","àn"],["H","is"],["in","at"],["v","òng"],["ne","ar"],["ạ","p"],["g","l"],["f","av"],["è","n"],["x","ử"],["pe","ci"],["S","h"],["H","u"],["b","at"],["y","ea"],["m","ôi"],["ar","m"],["ur","y"],["s","l"],["nh","óm"],["C","ũng"],["is","n"],["f","il"],["re","w"],["đ","ứa"],["N","hi"],["ọ","t"],["ri","ed"],["th","ái"],["fe","lt"],["T","ại"],["d","ục"],["y","ing"],["ã","n"],["r","ing"],["He","y"],["A","f"],["bi","ểu"],["ut","es"],["x","anh"],["x","ét"],["ol","s"],["ha","m"],["v","at"],["r","àng"],["in","es"],["ta","il"],["Y","ea"],["ter","n"],["ch","ắn"],["eas","y"],["ul","t"],["j","or"],["o","de"],["đ","êm"],["un","it"],["d","le"],["việ","n"],["pr","is"],["lã","o"],["m","áu"],["em","p"],["li","ền"],["v","ận"],["so","ng"],["e","con"],["l","ạnh"],["med","i"],["l","ang"],["kho","a"],["ổ","ng"],["id","er"],["W","ho"],["ké","o"],["E","ng"],["and","s"],["k","ý"],["ind","i"],["nh","a"],["c","ải"],["ex","pl"],["k","ích"],["t","ou"],["c","it"],["ck","ed"],["đ","a"],["an","im"],["A","c"],["m","ic"],["ã","o"],["f","lo"],["R","ồi"],["th","ú"],["nh","ẹ"],["th","ơ"],["al","i"],["s","ư"],["tu","ần"],["ng","uy"],["li","ce"],["ph","ép"],["R","i"],["d","ou"],["d","ạng"],["do","or"],["tr","ad"],["ớ","m"],["s","ent"],["B","y"],["s","es"],["s","w"],["r","ic"],["hu","ge"],["lu","e"],["lu","ật"],["m","ô"],["Đ","ông"],["tr","ic"],["k","ẻ"],["C","ách"],["ng","ờ"],["re","co"],["f","ine"],["red","u"],["d","ữ"],["ụ","ng"],["ag","es"],["tr","ải"],["K","i"],["ch","es"],["s","áu"],["ủ","i"],["ga","ve"],["f","low"],["m","ặc"],["M","inh"],["bi","ển"],["ke","ts"],["ph","úc"],["bo","x"],["ci","es"],["re","en"],["m","ối"],["be","at"],["d","àng"],["ro","ad"],["f","ut"],["f","l"],["P","o"],["st","y"],["B","a"],["S","te"],["d","ed"],["lo","ad"],["re","le"],["Đ","ại"],["s","is"],["iệ","c"],["h","ạ"],["b","ọn"],["y","es"],["su","g"],["su","p"],["p","ing"],["c","ing"],["f","li"],["hi","ểm"],["bu","ổi"],["lo","st"],["N","at"],["co","i"],["đó","ng"],["B","ộ"],["N","or"],["fun","c"],["h","òa"],["an","al"],["thị","t"],["b","ánh"],["D","id"],["to","m"],["s","ạch"],["W","or"],["v","ent"],["c","tor"],["h","ạnh"],["er","a"],["de","v"],["me","t"],["M","e"],["B","ình"],["c","ân"],["V","iệc"],["m","ật"],["so","on"],["a","me"],["b","ot"],["t","w"],["c","ir"],["d","ist"],["an","e"],["v","ity"],["an","ti"],["en","tr"],["A","re"],["we","ar"],["g","one"],["ch","ăm"],["đ","áp"],["st","ra"],["đ","ừng"],["pat","i"],["te","xt"],["l","á"],["h","ại"],["ce","p"],["jo","y"],["đ","ông"],["C","ol"],["wr","it"],["g","hi"],["k","ed"],["U","m"],["D","i"],["ặ","n"],["l","inh"],["ph","ạm"],["He","re"],["đ","u"],["b","att"],["di","o"],["ỏ","ng"],["õ","i"],["ế","ng"],["d","ần"],["ẵ","n"],["eas","i"],["L","ong"],["or","ig"],["ng","on"],["i","ble"],["s","li"],["s","it"],["nó","ng"],["d","òng"],["re","am"],["V","ũ"],["m","ôn"],["f","und"],["gir","l"],["s","ớm"],["h","und"],["đ","ỏ"],["f","ur"],["ệ","t"],["ỏ","a"],["Ho","a"],["l","ao"],["ex","t"],["v","ai"],["ử","i"],["ce","ll"],["t","ar"],["s","al"],["ou","d"],["s","co"],["g","un"],["ta","x"],["po","se"],["gi","c"],["cá","o"],["ey","es"],["n","ền"],["mù","a"],["il","ar"],["ph","o"],["v","ốn"],["t","ám"],["en","e"],["An","y"],["il","t"],["ank","s"],["l","ai"],["n","âng"],["w","ide"],["l","er"],["m","as"],["pe","c"],["ph","ủ"],["s","of"],["ch","ấp"],["mo","vi"],["ris","k"],["do","ll"],["tiệ","n"],["ma","il"],["dd","en"],["er","o"],["đ","em"],["pl","es"],["ẩ","u"],["e","ty"],["er","y"],["p","an"],["ch","áu"],["re","li"],["l","ink"],["n","ặng"],["th","or"],["m","ing"],["B","ởi"],["S","u"],["th","ầy"],["m","ơ"],["tow","n"],["d","ầu"],["le","ge"],["F","o"],["h","ậu"],["b","ri"],["ta","i"],["Là","m"],["de","ep"],["ac","y"],["tổ","ng"],["N","G"],["g","as"],["sc","ri"],["bo","y"],["am","p"],["s","ẵn"],["re","t"],["sh","ot"],["B","à"],["w","ond"],["y","ên"],["m","ẫu"],["ch","ờ"],["l","ỗi"],["h","ur"],["ki","ểu"],["l","ạ"],["l","ắng"],["T","e"],["đ","en"],["cá","nh"],["b","ảy"],["br","ou"],["f","le"],["th","úc"],["c","uốn"],["L","ăng"],["ủ","y"],["p","ush"],["L","úc"],["ũ","i"],["go","d"],["S","ự"],["r","on"],["nu","ôi"],["N","ội"],["h","uy"],["le","y"],["T","ây"],["g","ắng"],["ti","ểu"],["ớ","t"],["re","l"],["ổ","n"],["ne","y"],["Lo","ok"],["r","ăng"],["Th","u"],["te","c"],["Nó","i"],["t","ận"],["ch","ữ"],["re","gi"],["m","ắc"],["v","ic"],["g","at"],["W","il"],["di","es"],["iệ","ng"],["p","him"],["me","as"],["tin","u"],["l","ack"],["ma","ch"],["s","low"],["G","e"],["kh","ảo"],["R","a"],["s","ân"],["g","ed"],["ngh","ỉ"],["nh","ờ"],["J","ack"],["kh","ổ"],["Y","our"],["P","ho"],["id","es"],["h","út"],["M","c"],["de","ad"],["is","s"],["đo","àn"],["kh","ắc"],["d","ad"],["or","k"],["Ng","ày"],["Đ","ức"],["re","ci"],["e","ff"],["s","end"],["B","ắc"],["ne","l"],["đo","án"],["tic","s"],["m","ái"],["d","ấu"],["lo","se"],["s","our"],["c","red"],["th","ấp"],["h","one"],["ó","p"],["v","ượt"],["d","ạy"],["pl","us"],["h","ấp"],["ứ","t"],["M","on"],["t","ù"],["W","ar"],["b","ly"],["aw","es"],["ủ","ng"],["f","air"],["fa","il"],["new","s"],["N","A"],["s","ắp"],["x","o"],["s","ơ"],["tr","ac"],["on","y"],["ầ","ng"],["ar","gu"],["S","up"],["ng","ôi"],["pi","e"],["b","ức"],["m","and"],["en","cy"],["p","ack"],["ẹ","n"],["so","ld"],["E","ven"],["i","ed"],["Nh","à"],["Đ","ối"],["am","in"],["tr","ì"],["w","all"],["ù","a"],["ab","o"],["H","ar"],["b","í"],["Th","ái"],["C","ha"],["Nh","ật"],["te","ly"],["st","ic"],["ch","ữa"],["à","m"],["od","s"],["sp","ir"],["ph","y"],["Đ","ồng"],["bu","ồn"],["r","ate"],["it","i"],["N","gh"],["e","ad"],["l","ộ"],["đ","ăng"],["id","ed"],["in","al"],["f","ra"],["th","ậm"],["s","we"],["man","a"],["l","ạc"],["ro","ll"],["ú","a"],["su","ng"],["V","ăn"],["su","ốt"],["di","e"],["do","g"],["đ","ảo"],["li","er"],["j","ump"],["co","p"],["x","ung"],["đ","ào"],["to","án"],["iệ","p"],["P","at"],["o","g"],["t","ầm"],["h","ồn"],["k","ê"],["an","ta"],["cam","p"],["đ","ẩy"],["te","ct"],["D","an"],["s","mo"],["N","F"],["đ","ô"],["ò","i"],["A","b"],["c","ắt"],["kh","ám"],["me","th"],["V","ề"],["sa","ge"],["đ","ột"],["lã","nh"],["se","c"],["co","ve"],["de","li"],["h","ề"],["co","de"],["T","ất"],["a","de"],["s","en"],["wi","fe"],["th","ai"],["c","la"],["ab","or"],["E","uro"],["D","av"],["s","itt"],["vel","s"],["ó","t"],["T","om"],["ag","ed"],["nh","ắc"],["v","an"],["t","ội"],["t","ồn"],["Y","ork"],["de","st"],["A","pp"],["qu","ên"],["ễ","m"],["du","ct"],["G","r"],["đ","ợi"],["T","V"],["Ch","ar"],["f","ly"],["T","ri"],["h","ôn"],["d","ị"],["G","u"],["g","ine"],["r","ul"],["g","ửi"],["s","qu"],["v","ate"],["or","ts"],["x","ấu"],["n","úi"],["L","inh"],["Đ","ến"],["at","s"],["dự","a"],["d","en"],["O","f"],["gi","ai"],["c","ầm"],["te","e"],["r","ist"],["m","ềm"],["t","óc"],["al","ri"],["ngh","ị"],["ng","ăn"],["n","ắm"],["i","gh"],["a","ver"],["b","lue"],["mo","m"],["n","ỗi"],["u","age"],["A","u"],["b","la"],["Go","od"],["s","at"],["m","it"],["c","lu"],["R","es"],["cr","it"],["qu","ần"],["d","ru"],["B","ây"],["n","ers"],["up","on"],["đ","ích"],["i","o"],["su","n"],["ch","ứa"],["p","en"],["in","ed"],["k","ỷ"],["t","ầng"],["for","d"],["ỗ","ng"],["d","ám"],["pu","ll"],["re","as"],["n","ối"],["fe","at"],["d","õi"],["đ","ỡ"],["W","at"],["le","a"],["ni","ềm"],["s","hip"],["ha","ir"],["p","ly"],["gi","ấy"],["N","ên"],["ra","m"],["b","ổ"],["C","u"],["è","m"],["Đ","ược"],["si","ze"],["l","ửa"],["g","ing"],["l","ễ"],["om","ic"],["fi","x"],["B","ra"],["S","am"],["w","it"],["kh","ô"],["N","ăm"],["l","ĩnh"],["ẳ","n"],["S","y"],["f","ish"],["t","ươi"],["Tu","be"],["re","ly"],["c","ũ"],["s","ữa"],["v","a"],["Tr","ên"],["t","ắc"],["đ","ổ"],["thủ","y"],["h","ạt"],["k","ính"],["B","ar"],["r","ac"],["F","i"],["ack","s"],["au","ti"],["e","mo"],["d","ang"],["go","al"],["d","ây"],["n","iệm"],["t","ấn"],["s","óc"],["com","b"],["c","à"],["r","ơi"],["M","ẹ"],["n","ông"],["g","à"],["su","s"],["l","am"],["y","o"],["gi","àu"],["t","ín"],["in","o"],["p","ha"],["m","ũi"],["ev","id"],["ng","ữ"],["H","er"],["ng","th"],["v","ũ"],["b","ại"],["m","ãi"],["b","t"],["ù","i"],["p","ath"],["m","ày"],["h","ar"],["a","ff"],["A","ust"],["ngh","ề"],["b","on"],["wi","ld"],["c","up"],["K","ing"],["su","ất"],["v","il"],["x","y"],["C","O"],["d","ark"],["we","l"],["t","àu"],["s","il"],["b","ase"],["kh","ẩu"],["P","er"],["r","ay"],["ey","e"],["D","ù"],["ra","ge"],["e","red"],["ch","em"],["b","and"],["nh","ạc"],["L","a"],["e","ase"],["H","ay"],["K","im"],["in","tr"],["gi","ó"],["wo","od"],["fe","et"],["lo","g"],["n","ấu"],["m","ur"],["th","ở"],["B","ên"],["ps","y"],["di","ed"],["f","at"],["l","or"],["M","ỗi"],["ch","ào"],["H","ải"],["Ph","áp"],["l","ad"],["ượ","u"],["t","ải"],["l","li"],["kh","ởi"],["ju","d"],["on","si"],["so","lu"],["co","ld"],["F","r"],["h","ài"],["l","ư"],["r","or"],["I","D"],["b","ật"],["st","ri"],["is","ed"],["val","u"],["B","ản"],["V","í"],["y","ard"],["d","ậy"],["g","lo"],["so","át"],["x","ếp"],["m","ê"],["b","ột"],["B","ig"],["c","ập"],["v","í"],["m","ời"],["ow","ed"],["bi","o"],["h","ẳn"],["ấ","c"],["m","ưa"],["w","ish"],["t","ly"],["L","an"],["t","ốc"],["G","et"],["b","es"],["n","ửa"],["S","ơn"],["B","ước"],["nh","ằm"],["be","ha"],["z","a"],["Tr","ần"],["t","ỏ"],["ro","le"],["ne","c"],["bu","ộc"],["mà","n"],["w","ise"],["ho","st"],["g","óp"],["l","ts"],["Ch","ị"],["pl","at"],["sp","ot"],["h","un"],["we","bs"],["he","at"],["s","ens"],["n","ạn"],["P","ar"],["O","ur"],["pr","in"],["ke","pt"],["pr","ac"],["C","a"],["d","ate"],["U","ni"],["ho","od"],["h","ầu"],["m","b"],["ch","ặt"],["in","de"],["o","id"],["t","our"],["s","ou"],["G","er"],["ni","ên"],["e","qui"],["b","ạc"],["P","r"],["Đ","ã"],["C","uối"],["ad","a"],["ex","c"],["H","iện"],["đ","ám"],["vi","êm"],["r","ủi"],["co","ll"],["S","i"],["lo","ss"],["b","ếp"],["lu","de"],["r","out"],["k","ịp"],["é","o"],["ng","ắn"],["C","or"],["gi","à"],["g","ent"],["C","ao"],["pa","id"],["bab","y"],["du","e"],["ro","ck"],["r","ời"],["b","ữa"],["e","o"],["od","u"],["r","ượu"],["I","I"],["ma","i"],["fe","ed"],["Th","ực"],["Th","ời"],["S","er"],["th","ận"],["T","H"],["In","st"],["y","e"],["n","s"],["co","ok"],["gi","ết"],["h","át"],["m","m"],["cơ","m"],["ra","u"],["th","ăm"],["am","s"],["ci","p"],["th","ừa"],["ã","ng"],["t","le"],["t","ôn"],["c","ry"],["ị","nh"],["Jo","e"],["T","ử"],["ph","ê"],["on","to"],["ph","ận"],["it","at"],["t","ấm"],["s","ửa"],["k","y"],["R","us"],["n","es"],["of","fe"],["m","ạch"],["D","es"],["C","ity"],["N","i"],["F","rom"],["Ch","u"],["mù","i"],["Th","ứ"],["L","âm"],["k","im"],["ng","e"],["b","ầu"],["c","ận"],["ké","m"],["đó","n"],["a","do"],["sk","in"],["qu","án"],["ple","x"],["là","nh"],["sa","ve"],["v","ững"],["t","an"],["gu","e"],["k","er"],["m","ate"],["chi","e"],["k","ick"],["NF","L"],["n","ine"],["đ","èn"],["re","p"],["M","ọi"],["d","ừng"],["X","in"],["Ph","ải"],["r","ửa"],["z","z"],["H","ồ"],["lo","ck"],["f","it"],["D","is"],["au","to"],["f","ed"],["b","ou"],["h","ous"],["ụ","p"],["N","ga"],["X","em"],["th","ảo"],["l","ưng"],["Ả","nh"],["p","red"],["own","s"],["ha","ps"],["vi","ol"],["j","our"],["he","ll"],["dro","p"],["b","ir"],["bo","ys"],["C","am"],["Li","ên"],["mi","x"],["Ng","ọc"],["Se","e"],["p","in"],["r","út"],["C","ần"],["x","ưa"],["Ph","ật"],["el","s"],["s","ông"],["Đ","ầu"],["V","ân"],["T","ex"],["ph","ổ"],["er","c"],["t","uy"],["t","ộc"],["b","ụng"],["Br","it"],["l","ặng"],["B","an"],["N","e"],["r","ace"],["ro","te"],["to","t"],["O","b"],["man","s"],["gi","ận"],["l","ược"],["m","l"],["c","ash"],["s","ess"],["en","em"],["su","ff"],["khó","a"],["nh","ật"],["r","up"],["ro","y"],["he","ld"],["H","a"],["c","ot"],["z","ed"],["Y","ep"],["Mo","st"],["ber","t"],["Ge","or"],["og","le"],["ụ","i"],["g","ar"],["li","ed"],["M","in"],["C","ậu"],["h","ung"],["K","ỳ"],["m","ẽ"],["m","ber"],["ent","u"],["ườ","n"],["av","y"],["s","àng"],["si","êu"],["d","au"],["m","ã"],["cl","es"],["ng","ân"],["us","es"],["ur","ch"],["po","c"],["L","ý"],["e","qu"],["D","r"],["S","an"],["ớ","p"],["g","ốc"],["i","le"],["er","i"],["b","ul"],["g","or"],["x","im"],["ev","ol"],["pre","p"],["tr","at"],["mi","ền"],["Ch","ủ"],["ab","ly"],["C","he"],["E","ar"],["an","a"],["r","ừng"],["b","ào"],["v","ết"],["ck","y"],["é","n"],["Jo","sh"],["S","tu"],["fi","ed"],["f","am"],["lic","y"],["ph","ối"],["E","d"],["be","li"],["di","g"],["le","ct"],["se","a"],["ag","re"],["ch","âu"],["S","ao"],["E","n"],["Al","so"],["h","ate"],["M","ed"],["X","u"],["un","k"],["a","po"],["do","cu"],["ig","at"],["m","ừng"],["b","ày"],["Th","ật"],["b","ra"],["A","d"],["J","im"],["re","f"],["thơ","m"],["tổ","n"],["r","al"],["ic","t"],["x","i"],["n","ắng"],["l","ầm"],["T","y"],["f","y"],["S","ain"],["v","ời"],["S","a"],["W","as"],["i","ved"],["T","ra"],["k","êu"],["o","my"],["B","A"],["o","il"],["l","ẫn"],["c","ơn"],["T","ổng"],["Đ","úng"],["mis","s"],["e","ts"],["ti","ll"],["b","iện"],["au","lt"],["C","ả"],["ch","ảy"],["t","ree"],["C","âu"],["tù","y"],["b","ank"],["M","u"],["B","ảo"],["g","am"],["p","on"],["air","s"],["as","su"],["re","ve"],["tr","ao"],["tr","ou"],["là","ng"],["d","áng"],["d","ai"],["bor","n"],["F","ace"],["ink","s"],["m","ỹ"],["Nh","ân"],["t","end"],["gi","ám"],["G","en"],["ợ","t"],["mar","k"],["F","u"],["ar","ri"],["b","è"],["r","ối"],["Ng","ay"],["H","ội"],["t","ái"],["po","or"],["c","ate"],["g","óc"],["ri","ch"],["we","b"],["Ti","ểu"],["N","H"],["ni","a"],["T","P"],["ĩ","a"],["Th","ị"],["M","ặc"],["a","im"],["Mi","ke"],["W","ow"],["b","ing"],["hur","t"],["cri","p"],["Ti","ếp"],["A","fr"],["jo","in"],["c","ử"],["m","oun"],["T","am"],["b","ow"],["f","lu"],["C","oun"],["ch","ậm"],["p","age"],["an","n"],["th","ụ"],["J","ap"],["Đ","ừng"],["s","ick"],["T","wo"],["d","ày"],["Ch","âu"],["s","po"],["fe","ar"],["đ","ệ"],["m","ine"],["S","A"],["c","ấu"],["Th","ần"],["c","ord"],["b","ag"],["kh","ối"],["v","ội"],["b","ird"],["hi","ps"],["ve","hi"],["au","l"],["er","n"],["ng","àn"],["R","ất"],["st","ly"],["ch","at"],["g","ỗ"],["re","ac"],["A","i"],["họ","a"],["n","ão"],["pro","m"],["dam","n"],["le","ag"],["ng","ọt"],["E","l"],["P","res"],["H","ave"],["m","át"],["t","ĩnh"],["b","inh"],["der","n"],["gi","ấc"],["si","a"],["ng","ại"],["al","o"],["fi","ll"],["t","ô"],["lo","ạn"],["H","ắn"],["K","ết"],["Đ","o"],["go","ld"],["ri","an"],["kh","ắp"],["mi","ễn"],["on","a"],["tr","ừ"],["g","ree"],["đu","ổi"],["s","óng"],["h","ồng"],["lo","ài"],["we","ap"],["R","ed"],["c","ăng"],["tr","úc"],["C","ali"],["K","inh"],["P","l"],["F","e"],["g","ắn"],["y","ond"],["f","ans"],["M","any"],["H","ôm"],["gen","e"],["n","ar"],["l","ệnh"],["d","inh"],["m","ệt"],["fi","le"],["pro","g"],["Mo","re"],["khó","c"],["no","ti"],["th","ập"],["th","ù"],["R","ep"],["vi","or"],["we","ak"],["S","p"],["ph","en"],["sof","t"],["B","en"],["D","ep"],["T","ình"],["tr","an"],["s","ac"],["S","im"],["vol","u"],["fe","ll"],["M","or"],["gi","ỏi"],["th","ao"],["m","ad"],["W","ill"],["Đ","ặc"],["ar","my"],["se","ts"],["m","ắn"],["on","se"],["J","es"],["S","E"],["ch","áy"],["E","ast"],["p","as"],["c","ứng"],["z","ero"],["em","er"],["vu","a"],["se","cu"],["b","ò"],["B","ài"],["s","ite"],["ys","is"],["L","y"],["đ","òi"],["n","ét"],["shi","r"],["f","ing"],["n","ic"],["C","M"],["l","ối"],["be","l"],["b","ảng"],["id","s"],["B","ill"],["in","v"],["g","ers"],["h","ẹn"],["t","úi"],["is","on"],["t","ệ"],["w","ast"],["do","m"],["K","o"],["i","er"],["z","one"],["ti","an"],["m","ale"],["le","x"],["Gi","a"],["sh","ar"],["C","ảm"],["l","ăm"],["C","H"],["te","mp"],["li","d"],["op","in"],["s","ổ"],["red","i"],["A","h"],["ng","ạc"],["re","pe"],["ng","ôn"],["op","er"],["b","ăng"],["t","í"],["t","ạp"],["phi","c"],["A","M"],["C","l"],["We","st"],["H","ồng"],["C","ùng"],["not","e"],["i","ly"],["Ti","ên"],["h","t"],["t","ả"],["ng","er"],["t","ặng"],["m","ệnh"],["T","od"],["Al","th"],["l","ượt"],["H","ơn"],["i","ves"],["at","or"],["lot","s"],["tr","ụ"],["st","on"],["spe","a"],["it","es"],["j","ury"],["au","di"],["b","ền"],["H","y"],["b","od"],["ậ","c"],["T","ur"],["Nh","ìn"],["đ","ậu"],["R","ob"],["b","ang"],["B","ro"],["fil","m"],["ed","ge"],["Do","es"],["n","è"],["nh","ảy"],["ng","ũ"],["th","a"],["h","on"],["liệ","t"],["W","al"],["id","ge"],["L","A"],["k","a"],["l","ẻ"],["W","ash"],["P","ri"],["th","ẩm"],["th","ói"],["i","tor"],["Du","de"],["f","ol"],["h","ào"],["i","or"],["O","ver"],["su","it"],["ự","ng"],["ho","le"],["t","ask"],["ll","o"],["s","ánh"],["co","re"],["il","s"],["W","a"],["i","um"],["sc","en"],["pu","bl"],["sho","p"],["y","est"],["nh","ấn"],["S","ha"],["en","n"],["s","am"],["ch","ạm"],["k","ì"],["K","e"],["b","ậc"],["V","ery"],["m","ộ"],["g","ust"],["t","ạm"],["ho","sp"],["re","mo"],["n","al"],["bu","d"],["t","ắt"],["c","ro"],["b","low"],["m","ary"],["ni","e"],["op","s"],["he","a"],["f","as"],["t","ack"],["T","ư"],["ad","es"],["tr","òn"],["can","h"],["ta","o"],["ev","al"],["h","ứng"],["On","ce"],["ri","al"],["bi","le"],["cir","c"],["bla","h"],["đ","ức"],["th","í"],["co","ng"],["e","li"],["qu","ê"],["chu","a"],["l","ái"],["te","in"],["cr","ow"],["P","C"],["V","ào"],["at","ic"],["là","n"],["B","ay"],["t","ịch"],["u","als"],["c","ặp"],["k","èm"],["m","uối"],["m","ại"],["Qu","ân"],["B","ur"],["cl","us"],["Ho","ặc"],["pe","t"],["thu","a"],["re","y"],["đ","ốc"],["de","cl"],["ar","ti"],["g","ri"],["v","or"],["sh","ut"],["cư","ới"],["L","ê"],["te","x"],["C","le"],["th","y"],["gr","at"],["m","ụ"],["l","ap"],["er","t"],["d","in"],["B","ệnh"],["gh","ế"],["C","ơ"],["se","qu"],["a","x"],["J","an"],["B","ác"],["ag","g"],["it","em"],["H","ồn"],["Qu","an"],["ex","pe"],["k","iệm"],["W","ind"],["v","ot"],["b","ối"],["s","me"],["um","b"],["om","en"],["bé","o"],["T","ết"],["k","o"],["ak","er"],["v","ẽ"],["du","ce"],["l","ỗ"],["i","ans"],["g","ấp"],["bi","a"],["thu","ê"],["ic","o"],["L","ưu"],["hộ","p"],["ru","le"],["ch","ụp"],["T","âm"],["ca","de"],["ed","s"],["te","en"],["a","ut"],["we","a"],["n","ổ"],["ht","ml"],["ng","ã"],["H","òa"],["k","no"],["t","ờ"],["ki","ên"],["ru","it"],["t","ảng"],["T","wit"],["S","at"],["if","y"],["re","r"],["tr","à"],["p","un"],["M","ai"],["s","ad"],["F","ren"],["Â","u"],["ord","s"],["se","x"],["ce","le"],["f","fe"],["ar","an"],["up","id"],["đị","ch"],["l","ông"],["bi","ên"],["Gi","ờ"],["M","ic"],["man","u"],["b","ac"],["c","tu"],["lau","n"],["Co","me"],["H","ọc"],["ra","id"],["f","la"],["S","ẽ"],["b","ắn"],["li","ar"],["r","ush"],["Ch","úa"],["n","one"],["L","ại"],["far","m"],["ch","im"],["B","ow"],["n","ỗ"],["cop","y"],["m","ỏi"],["số","t"],["C","ent"],["ef","it"],["E","D"],["bre","a"],["c","ru"],["H","ình"],["A","ir"],["s","na"],["S","und"],["S","pe"],["P","le"],["D","ay"],["D","ra"],["re","fe"],["m","un"],["h","ãi"],["sy","mp"],["S","ure"],["ỡ","i"],["Is","ra"],["g","ard"],["p","al"],["v","ỡ"],["ca","pe"],["m","ort"],["ari","o"],["on","ic"],["g","he"],["v","ỏ"],["ag","er"],["A","I"],["h","àm"],["t","ụ"],["tu","al"],["T","im"],["đ","ỉnh"],["s","pl"],["kê","nh"],["Cu","ộc"],["h","ạng"],["we","st"],["c","ẩn"],["law","s"],["car","s"],["Th","ôi"],["lo","c"],["ph","ức"],["ta","p"],["L","ea"],["P","u"],["uố","t"],["h","at"],["c","ục"],["m","ass"],["Ch","ắc"],["mi","le"],["bo","o"],["P","aul"],["gi","ây"],["mo","ti"],["od","es"],["K","en"],["c","and"],["an","ci"],["ra","b"],["ak","s"],["h","ả"],["t","ủ"],["v","ườn"],["ick","s"],["qu","à"],["i","ers"],["as","es"],["de","mo"],["in","ju"],["ne","ct"],["kh","án"],["R","u"],["N","a"],["in","no"],["ch","ấm"],["L","ục"],["ed","it"],["t","ắm"],["tr","uy"],["ef","s"],["ec","es"],["B","B"],["I","S"],["ll","a"],["nd","er"],["l","ọc"],["m","ess"],["r","and"],["b","ờ"],["li","br"],["Ng","he"],["ướ","p"],["dru","g"],["ap","po"],["v","ang"],["d","ạ"],["ve","y"],["m","ãn"],["tr","ầm"],["m","ir"],["B","ằng"],["d","iệt"],["ft","ed"],["al","ed"],["te","le"],["h","ảo"],["qu","ái"],["Ti","êu"],["M","il"],["x","inh"],["ri","f"],["Vi","et"],["si","an"],["é","m"],["A","C"],["S","ử"],["ed","y"],["cus","s"],["ti","ềm"],["S","ci"],["B","ạch"],["ar","ms"],["A","no"],["L","ist"],["h","um"],["J","ew"],["S","cho"],["I","C"],["Nh","ất"],["b","its"],["to","ol"],["s","and"],["Ph","ần"],["Wa","it"],["mis","e"],["di","ag"],["C","ảnh"],["me","ly"],["t","àn"],["D","ur"],["le","fi"],["o","o"],["B","ất"],["s","ust"],["R","y"],["er","ve"],["s","wi"],["ị","n"],["pe","an"],["P","S"],["gre","w"],["t","òa"],["đ","ế"],["d","s"],["M","at"],["th","ỏa"],["lad","y"],["N","D"],["cre","t"],["T","O"],["al","a"],["A","D"],["l","f"],["Ch","in"],["D","ạ"],["F","in"],["be","ar"],["t","án"],["al","y"],["B","er"],["w","ow"],["v","in"],["ed","om"],["S","cot"],["ce","ed"],["e","gg"],["P","ark"],["f","ir"],["S","ec"],["i","p"],["p","ite"],["b","ề"],["ủ","a"],["In","te"],["th","us"],["s","now"],["s","ơn"],["F","ran"],["O","ff"],["l","ũ"],["d","ry"],["d","im"],["t","at"],["fo","c"],["Gi","áo"],["po","ol"],["ut","s"],["S","inh"],["au","r"],["th","ờ"],["vi","a"],["đ","áo"],["ce","l"],["Gi","á"],["ch","ea"],["to","ms"],["re","qu"],["c","is"],["t","es"],["S","w"],["G","ar"],["b","um"],["run","s"],["gi","ật"],["L","on"],["Ch","í"],["v","õ"],["O","c"],["sp","i"],["ớ","n"],["k","ín"],["đ","ập"],["họ","p"],["A","ng"],["M","ười"],["fo","ld"],["mi","th"],["ke","m"],["gra","b"],["li","p"],["L","in"],["I","m"],["c","ốt"],["ci","pl"],["us","er"],["l","ô"],["i","Ph"],["ear","s"],["h","us"],["cl","in"],["e","th"],["ướ","t"],["A","dam"],["do","c"],["s","àn"],["eld","s"],["ph","ạt"],["Q","uy"],["tu","ng"],["g","ói"],["l","ục"],["any","w"],["L","am"],["jo","ke"],["C","ong"],["S","ố"],["T","ay"],["M","ac"],["M","ặt"],["e","ch"],["J","er"],["C","ứ"],["ma","p"],["S","or"],["S","ep"],["an","ch"],["ot","a"],["sur","r"],["đ","ựng"],["A","R"],["ph","ó"],["T","ôn"],["mo","d"],["Dan","i"],["M","ark"],["par","k"],["sk","y"],["s","ôi"],["Hi","gh"],["ri","a"],["Đ","à"],["d","ịp"],["m","itt"],["c","il"],["ng","ực"],["B","re"],["ph","án"],["M","att"],["ph","ú"],["cả","n"],["war","m"],["ọ","a"],["job","s"],["tri","p"],["gi","es"],["v","ay"],["f","ai"],["bl","ed"],["F","rid"],["L","ou"],["at","er"],["S","ở"],["t","ỉ"],["d","ao"],["M","ex"],["j","i"],["Th","om"],["H","ạo"],["y","a"],["p","he"],["vi","ll"],["id","a"],["f","lat"],["in","su"],["ain","s"],["ng","ọn"],["Th","ủ"],["ng","ón"],["E","S"],["T","al"],["di","et"],["tr","àn"],["do","gs"],["n","ợ"],["Ri","ch"],["h","ư"],["Ta","ke"],["A","lex"],["b","ỗng"],["M","ary"],["M","us"],["Th","ấy"],["loy","e"],["mụ","n"],["k","ers"],["Xu","ân"],["k","ịch"],["Th","ủy"],["t","au"],["Ph","ú"],["St","ar"],["rap","y"],["Đ","ạo"],["ru","ột"],["m","ỡ"],["ac","ts"],["g","ã"],["c","ris"],["A","m"],["ú","y"],["st","an"],["lo","re"],["o","xy"],["lo","so"],["Qu","a"],["C","P"],["kh","úc"],["ow","er"],["qu","es"],["s","an"],["T","ự"],["li","am"],["v","s"],["ch","ó"],["set","t"],["g","ọn"],["l","át"],["L","ần"],["t","ốn"],["th","ả"],["D","ef"],["l","ab"],["des","i"],["K","y"],["th","ầm"],["ta","g"],["l","as"],["th","ôn"],["V","ừa"],["is","es"],["ar","on"],["Qu","ý"],["L","aw"],["b","ớt"],["đi","ển"],["thu","ế"],["her","o"],["ver","t"],["tr","ốn"],["tiế","c"],["as","y"],["ng","ựa"],["red","s"],["gg","ed"],["t","ây"],["cu","ri"],["d","ứt"],["a","ke"],["P","al"],["T","R"],["T","ân"],["ur","s"],["an","x"],["po","ll"],["nor","m"],["P","re"],["F","lor"],["w","are"],["ẹ","o"],["gl","ad"],["tr","ộn"],["C","ap"],["lo","ạt"],["Đ","ộ"],["H","en"],["ba","th"],["ng","ài"],["H","ol"],["t","un"],["n","ở"],["N","ước"],["le","an"],["lo","an"],["ru","c"],["đ","ài"],["P","lay"],["Kh","u"],["B","ob"],["g","ate"],["u","g"],["ar","a"],["m","ảnh"],["H","ành"],["fu","el"],["A","T"],["ph","ấn"],["pi","re"],["b","ận"],["h","ãng"],["se","xu"],["ng","ư"],["Tr","ời"],["ph","ái"],["R","ol"],["pt","ed"],["ho","l"],["b","át"],["C","D"],["S","ư"],["kh","ứ"],["ch","ợ"],["ter","y"],["S","un"],["n","ồi"],["N","et"],["gn","it"],["D","a"],["V","e"],["has","n"],["K","ho"],["t","áo"],["I","P"],["nh","an"],["Ch","ưa"],["hỗ","n"],["s","úng"],["bo","at"],["Ma","ke"],["T","it"],["d","ược"],["f","if"],["S","tr"],["th","ác"],["il","ed"],["de","l"],["un","t"],["p","air"],["US","D"],["had","n"],["m","á"],["ph","u"],["N","àng"],["h","ủy"],["re","ti"],["W","o"],["D","ư"],["h","ứa"],["clu","b"],["h","è"],["U","K"],["s","ứ"],["ch","ặn"],["ợ","n"],["ch","ối"],["c","ài"],["B","as"],["N","ext"],["v","ous"],["b","ạch"],["nh","ắn"],["Th","ay"],["or","i"],["nh","ẫn"],["G","ot"],["leg","s"],["was","h"],["re","ma"],["m","ực"],["Ph","át"],["th","ải"],["ho","p"],["đ","ốt"],["b","ông"],["ce","an"],["s","ắt"],["i","ver"],["ẫ","m"],["M","ục"],["Gi","ải"],["Gi","ới"],["li","an"],["con","c"],["u","ne"],["A","ma"],["Tu","ấn"],["tr","ôi"],["N","inh"],["cá","n"],["per","t"],["T","ài"],["de","b"],["ch","án"],["M","er"],["ve","re"],["bl","es"],["the","s"],["O","S"],["s","ạn"],["ris","e"],["N","ha"],["ic","ul"],["ad","ap"],["ch","ục"],["c","ất"],["J","eff"],["ị","a"],["xo","ay"],["co","in"],["tr","ần"],["tor","m"],["Gi","ả"],["ng","es"],["ch","úc"],["put","s"],["qu","ỷ"],["tự","a"],["g","ay"],["r","ide"],["Ng","hi"],["bur","n"],["st","s"],["G","ame"],["ic","er"],["I","V"],["g","ạo"],["me","at"],["h","ải"],["H","am"],["le","ts"],["F","C"],["G","ra"],["ev","in"],["l","ừa"],["h","ùng"],["b","ord"],["Phi","l"],["đ","ậm"],["r","ick"],["ti","a"],["B","al"],["z","on"],["đi","ên"],["J","ay"],["E","ach"],["off","s"],["ộ","m"],["bu","ll"],["A","L"],["H","ạ"],["hi","ếm"],["M","al"],["bi","ll"],["an","cy"],["ag","en"],["T","in"],["kh","ớp"],["ac","id"],["s","la"],["V","al"],["Te","ch"],["e","h"],["gi","on"],["c","ỏ"],["k","m"],["c","ú"],["N","ày"],["c","ột"],["m","ut"],["t","am"],["N","ick"],["z","o"],["ger","y"],["u","es"],["ti","p"],["di","a"],["L","ord"],["E","R"],["cli","p"],["Th","ậm"],["h","ôi"],["ch","er"],["u","ary"],["t","ách"],["ch","ap"],["T","ổ"],["I","T"],["con","v"],["M","iss"],["ù","m"],["tri","g"],["ra","d"],["th","ẻ"],["A","N"],["z","en"],["t","ật"],["ad","ul"],["ck","er"],["N","ữ"],["est","s"],["v","ac"],["ụ","t"],["ro","ot"],["wa","ke"],["bo","ss"],["M","ad"],["Ti","ến"],["đ","ẳng"],["ear","n"],["A","ct"],["at","ta"],["On","ly"],["s","ir"],["Đ","ảng"],["ẫ","y"],["P","ut"],["c","ờ"],["d","ính"],["Rep","u"],["P","T"],["Bi","ết"],["out","s"],["ph","er"],["id","en"],["P","od"],["Bow","l"],["l","en"],["Ch","ú"],["M","el"],["l","ắp"],["sy","n"],["x","ứng"],["li","z"],["lu","ck"],["A","pri"],["Y","u"],["e","u"],["í","u"],["m","one"],["m","ì"],["Re","al"],["d","an"],["b","ụi"],["p","y"],["Ry","an"],["b","ạo"],["se","g"],["t","ớ"],["se","y"],["O","ut"],["ta","ng"],["T","er"],["re","m"],["E","li"],["M","ari"],["x","âm"],["S","ài"],["V","ID"],["gg","le"],["th","ro"],["Ju","ne"],["t","ch"],["M","ôn"],["ai","gn"],["B","ố"],["gi","ấu"],["M","art"],["we","et"],["se","at"],["S","hi"],["S","how"],["e","per"],["tr","ấn"],["th","ảm"],["P","an"],["m","ỉ"],["al","co"],["h","ổ"],["c","m"],["n","ur"],["h","all"],["up","s"],["f","ro"],["z","i"],["at","o"],["Th","ầy"],["s","ợi"],["b","li"],["he","al"],["k","ne"],["p","il"],["s","ki"],["cổ","ng"],["L","ão"],["k","g"],["b","in"],["r","ẻ"],["ng","ơi"],["Th","r"],["cu","se"],["f","ts"],["de","bt"],["Đ","ôi"],["il","it"],["N","um"],["b","ám"],["Oc","to"],["b","ru"],["ph","r"],["ph","ẫu"],["su","sp"],["Ă","n"],["J","e"],["U","k"],["H","CM"],["d","ot"],["mil","k"],["h","es"],["n","it"],["h","ận"],["B","C"],["s","ót"],["tre","o"],["n","inh"],["id","el"],["wi","ki"],["B","ack"],["d","ĩ"],["Ju","ly"],["T","en"],["De","ce"],["B","et"],["r","ish"],["hu","ấn"],["d","âu"],["st","ro"],["to","s"],["lư","ới"],["T","inh"],["ff","ic"],["ad","s"],["A","P"],["tin","y"],["ng","ập"],["S","ea"],["Ti","ền"],["ê","nh"],["mu","ộn"],["d","ir"],["H","ill"],["V","ir"],["d","ent"],["n","út"],["s","had"],["ex","ch"],["m","ét"],["L","ast"],["V","ô"],["t","ỏa"],["b","ãi"],["tr","ào"],["D","NA"],["H","àng"],["dd","y"],["p","ill"],["s","ăn"],["b","one"],["fli","p"],["wa","ve"],["D","en"],["D","am"],["d","it"],["ì","a"],["J","ord"],["G","òn"],["S","m"],["S","to"],["đ","iệu"],["tr","it"],["M","uốn"],["C","our"],["A","S"],["w","ins"],["ng","ừa"],["h","arm"],["Q","ue"],["M","ast"],["c","ãi"],["r","ãi"],["ll","er"],["ay","s"],["V","is"],["j","ok"],["tu","ệ"],["g","ỡ"],["M","ã"],["W","el"],["Mr","s"],["qu","ận"],["V","ị"],["Y","êu"],["p","is"],["lã","ng"],["Ph","ó"],["ad","y"],["dị","u"],["F","ed"],["no","se"],["u","le"],["F","re"],["lu","ng"],["ch","ốt"],["cer","n"],["t","ons"],["ro","of"],["l","ính"],["ne","ck"],["l","ắc"],["hi","re"],["T","ính"],["n","ấm"],["p","ump"],["lệ","ch"],["ven","s"],["S","en"],["m","óc"],["ru","b"],["g","ợi"],["Pe","te"],["m","ờ"],["hi","ển"],["đ","eo"],["Ấ","n"],["Đ","ịa"],["ma","th"],["To","àn"],["to","x"],["L","C"],["I","ra"],["v","ong"],["S","al"],["ộ","p"],["in","ch"],["ex","e"],["ch","ấn"],["kh","en"],["ra","re"],["to","od"],["M","ới"],["ng","âm"],["po","ly"],["c","ket"],["m","ây"],["no","on"],["ễ","u"],["H","all"],["C","al"],["nu","c"],["kh","át"],["in","it"],["C","ủa"],["h","ô"],["ra","di"],["M","T"],["v","ant"],["Ph","ạm"],["Y","ên"],["xu","ân"],["ỳ","nh"],["er","r"],["k","in"],["l","ồ"],["ra","w"],["t","úc"],["ma","g"],["l","oud"],["ac","o"],["ro","id"],["ev","il"],["L","ời"],["f","al"],["em","ph"],["ti","e"],["d","ọn"],["T","ập"],["m","ốt"],["đó","i"],["Ira","q"],["S","ur"],["nh","ạt"],["U","p"],["nh","ỉ"],["ro","b"],["g","ro"],["t","ông"],["o","th"],["u","red"],["tr","ữ"],["D","ar"],["Th","ân"],["P","art"],["Ac","tu"],["m","ỏng"],["H","el"],["Th","ưa"],["gi","ãn"],["af","fe"],["v","ải"],["gi","ày"],["wi","re"],["C","S"],["b","ó"],["st","im"],["No","ve"],["C","ổ"],["C","lar"],["but","e"],["D","ự"],["ẹ","t"],["ố","m"],["mo","on"],["o","x"],["g","ật"],["t","all"],["ca","go"],["Đ","ịnh"],["gh","ét"],["um","s"],["t","ôm"],["ch","ùa"],["Bo","th"],["Qu","á"],["n","ãy"],["th","in"],["h","en"],["bo","om"],["he","o"],["C","ộng"],["S","ou"],["M","id"],["gi","áp"],["R","ủi"],["b","ơ"],["m","ill"],["S","ong"],["our","s"],["d","umb"],["go","lf"],["W","he"],["n","ụ"],["v","ạn"],["H","óa"],["an","nu"],["or","de"],["is","ol"],["r","ác"],["Nh","ận"],["Ma","x"],["d","ừa"],["h","ỏng"],["Ủ","y"],["A","ri"],["V","âng"],["V","ic"],["Ng","ài"],["if","f"],["fas","c"],["st","al"],["a","id"],["đ","am"],["p","ure"],["tr","ưa"],["T","ok"],["St","at"],["cre","w"],["cá","t"],["f","are"],["ượ","n"],["gy","m"],["r","um"],["C","ard"],["b","are"],["m","ến"],["li","ều"],["Nh","ờ"],["v","é"],["T","óm"],["ac","es"],["c","ab"],["P","i"],["tr","au"],["H","ồi"],["V","er"],["la","x"],["bus","y"],["P","oc"],["at","a"],["le","o"],["chú","a"],["tr","ại"],["z","er"],["se","m"],["U","l"],["V","u"],["l","âm"],["ul","ty"],["M","ấy"],["M","ur"],["h","uh"],["h","ầm"],["go","ti"],["un","ic"],["Lo","ve"],["th","ưa"],["il","ly"],["c","ự"],["đ","iệp"],["D","ùng"],["ng","ắm"],["m","ọc"],["do","me"],["c","ấm"],["B","S"],["Se","an"],["g","ins"],["Đ","ang"],["Đ","ào"],["D","ân"],["tr","ọn"],["Ob","vi"],["li","f"],["ci","vi"],["it","er"],["Đ","ế"],["so","le"],["m","ous"],["Lu","ật"],["g","ur"],["E","du"],["S","áng"],["th","ấu"],["G","ive"],["H","ùng"],["G","ree"],["f","ou"],["Ko","re"],["x","ứ"],["ng","ộ"],["F","our"],["v","acc"],["u","ti"],["d","ối"],["hi","ll"],["b","ù"],["le","ep"],["swi","m"],["T","S"],["u","d"],["m","èo"],["li","a"],["so","il"],["Tr","ái"],["N","ah"],["b","ond"],["ge","o"],["O","p"],["fl","ag"],["ta","ge"],["ed","ly"],["gi","ft"],["qu","it"],["po","li"],["đ","ớn"],["is","ms"],["ha","un"],["pr","ay"],["ra","is"],["T","ony"],["E","ag"],["nh","o"],["C","E"],["I","N"],["Te","ll"],["đ","ợt"],["ow","e"],["Pl","us"],["C","ụ"],["li","ct"],["ol","f"],["fa","ke"],["ul","a"],["Uk","ra"],["v","ote"],["Ke","ep"],["T","ìm"],["im","ed"],["m","ạc"],["Fu","ck"],["ho","ok"],["h","its"],["ti","êm"],["ie","ty"],["nh","e"],["t","ac"],["v","ice"],["ul","es"],["Br","on"],["et","c"],["P","H"],["li","qu"],["S","ch"],["th","âm"],["ea","st"],["r","ắn"],["đ","ĩa"],["T","re"],["c","ốc"],["đ","ùa"],["kh","ôn"],["Đ","ài"],["ent","y"],["H","D"],["v","as"],["ut","y"],["l","end"],["í","a"],["ne","ur"],["u","at"],["d","ick"],["ust","r"],["tiệ","c"],["R","am"],["B","ao"],["bo","mb"],["h","itt"],["Đ","iện"],["fre","a"],["ụ","y"],["m","au"],["i","th"],["se","ly"],["L","itt"],["V","ẫn"],["Đ","ình"],["h","ối"],["đ","ành"],["Đo","àn"],["T","C"],["đ","ạp"],["nh","ắm"],["nh","ịp"],["lu","en"],["sa","v"],["b","ọc"],["tr","ú"],["C","ow"],["ch","ở"],["br","at"],["C","ra"],["M","S"],["ệ","u"],["D","ung"],["đ","ằng"],["P","A"],["mà","ng"],["w","ing"],["H","ưng"],["c","ay"],["ex","po"],["e","co"],["đ","ạn"],["W","r"],["l","ùng"],["B","ốn"],["x","óa"],["Ho","àn"],["la","ke"],["S","pan"],["T","ên"],["ga","ge"],["L","au"],["M","s"],["vi","ve"],["bo","m"],["m","ạo"],["Li","fe"],["c","ướp"],["l","í"],["be","ll"],["Ti","me"],["T","op"],["ex","ec"],["hi","on"],["gun","s"],["it","su"],["d","ọc"],["D","ou"],["R","E"],["Ng","u"],["n","át"],["kh","ái"],["N","ob"],["St","re"],["P","ret"],["H","aw"],["v","ul"],["b","ấm"],["ir","on"],["Le","e"],["nh","ạy"],["hiệ","t"],["cra","p"],["Tr","ue"],["th","ấm"],["ea","th"],["S","ing"],["m","ò"],["lli","g"],["are","s"],["Dư","ới"],["Ch","ọn"],["l","ò"],["B","I"],["m","ộng"],["C","ur"],["Car","l"],["ha","o"],["Ng","ân"],["tu","ne"],["H","uy"],["N","ice"],["z","es"],["c","ậy"],["B","it"],["lã","i"],["R","od"],["ch","ai"],["chi","p"],["V","iện"],["b","ão"],["L","ai"],["il","er"],["ằ","n"],["lo","s"],["by","e"],["tu","ân"],["v","ẹn"],["id","i"],["Th","êm"],["L","at"],["đu","a"],["c","ow"],["ind","u"],["P","ol"],["nh","á"],["b","ơi"],["W","ed"],["v","ĩ"],["re","pl"],["Qu","ả"],["qu","ỹ"],["B","lue"],["l","ợn"],["v","y"],["cu","a"],["so","i"],["b","ú"],["ng","ọc"],["A","w"],["l","ôi"],["lư","ỡi"],["H","ệ"],["c","ỡ"],["it","a"],["U","N"],["we","t"],["ha","ck"],["r","ung"],["Ch","ứ"],["Ph","an"],["V","an"],["Ro","y"],["H","ầu"],["vi","et"],["Jo","se"],["th","áo"],["mu","ne"],["No","th"],["an","no"],["pro","v"],["m","ưu"],["nh","ựa"],["k","èo"],["w","ed"],["en","ch"],["ch","ả"],["o","i"],["j","a"],["l","ỡ"],["Ph","ụ"],["it","is"],["t","ens"],["m","ồ"],["M","en"],["Ph","ân"],["t","ab"],["ick","y"],["I","ran"],["er","ly"],["la","id"],["n","t"],["D","el"],["im","er"],["p","it"],["g","ối"],["lu","i"],["O","ld"],["C","y"],["G","a"],["ro","me"],["ho","li"],["ho","ài"],["Com","p"],["S","ar"],["me","al"],["Ho","me"],["b","ắp"],["p","ap"],["T","or"],["M","E"],["đ","âm"],["Đi","ểm"],["đ","à"],["r","ào"],["g","ory"],["ti","ed"],["M","is"],["te","a"],["se","es"],["ga","p"],["se","ed"],["b","oun"],["x","óm"],["L","and"],["sp","in"],["th","ổ"],["ti","al"],["T","ác"],["Y","o"],["v","ine"],["n","ọ"],["Th","ể"],["k","ins"],["ẵ","ng"],["B","í"],["D","ave"],["i","us"],["su","ck"],["mi","gr"],["K","hoa"],["M","ill"],["V","P"],["Ng","ô"],["who","m"],["s","in"],["ch","ăn"],["mon","s"],["b","ẩn"],["des","k"],["n","uts"],["Z","e"],["ro","t"],["G","old"],["to","k"],["đ","ền"],["M","áy"],["im","s"],["C","ây"],["D","uy"],["tí","m"],["b","út"],["đ","an"],["đ","ẻ"],["T","ông"],["S","and"],["Ch","áu"],["t","ân"],["đ","áy"],["D","ịch"],["ch","ép"],["tr","on"],["g","end"],["T","ô"],["tr","ộm"],["v","ân"],["Ro","me"],["v","ast"],["tr","op"],["fe","st"],["Đ","a"],["P","lan"],["S","áu"],["Th","ảo"],["kh","éo"],["sc","ar"],["Kh","í"],["hy","dr"],["ty","p"],["ri","er"],["T","ức"],["an","i"],["O","ly"],["B","el"],["p","per"],["S","D"],["R","ec"],["th","ri"],["n","ề"],["in","si"],["hi","de"],["b","ồi"],["S","ky"],["d","ọa"],["ch","ìm"],["hy","po"],["Ho","ld"],["H","L"],["i","li"],["B","ị"],["V","N"],["dis","h"],["m","ịn"],["me","ta"],["Vi","ên"],["bu","ôn"],["v","ả"],["w","ine"],["l","úa"],["st","ab"],["um","n"],["đu","ôi"],["I","ma"],["Ch","úc"],["sou","l"],["im","um"],["g","al"],["th","ợ"],["ta","pe"],["K","ind"],["Đ","ấy"],["Ph","úc"],["ươ","n"],["cy","cl"],["th","èm"],["L","ang"],["b","our"],["P","ack"],["ber","g"],["B","ảy"],["s","mil"],["F","ive"],["nh","ầm"],["Ho","ắc"],["r","ốt"],["go","sh"],["P","G"],["s","n"],["iz","za"],["v","ắng"],["T","T"],["C","er"],["g","ánh"],["as","p"],["E","spe"],["z","u"],["C","r"],["C","ung"],["Hu","ế"],["M","A"],["B","ọn"],["be","lt"],["O","N"],["n","êu"],["g","ang"],["n","ém"],["un","c"],["co","s"],["g","ut"],["l","ặp"],["Gi","ám"],["Ho","pe"],["ch","én"],["Th","ư"],["th","ắc"],["h","ẹp"],["p","ig"],["ph","ẩy"],["sh","or"],["re","fu"],["W","in"],["b","id"],["C","up"],["bar","r"],["al","ty"],["en","do"],["ph","un"],["lo","op"],["P","ay"],["n","ồng"],["co","al"],["B","ang"],["j","ac"],["Tu","es"],["n","ảy"],["l","ùi"],["A","dd"],["C","ố"],["S","por"],["E","T"],["ti","ci"],["cal","m"],["ide","o"],["S","il"],["m","ẻ"],["ra","mp"],["na","h"],["mul","a"],["l","ộn"],["r","ắc"],["D","own"],["D","ũng"],["egg","s"],["ge","ar"],["đ","ồn"],["V","õ"],["S","T"],["b","is"],["t","ẩy"],["s","can"],["Be","ng"],["l","ây"],["Bo","ok"],["hun","t"],["l","ord"],["hi","o"],["v","n"],["l","on"],["ac","le"],["S","ta"],["Đ","ội"],["T","ăng"],["t","ỏi"],["m","ac"],["G","uy"],["G","reg"],["j","er"],["ù","y"],["ak","es"],["đ","ắp"],["d","ge"],["K","ể"],["r","d"],["u","ine"],["r","ank"],["le","te"],["ke","ys"],["d","ò"],["s","ne"],["fir","m"],["Tr","ẻ"],["O","hio"],["Co","ol"],["ro","ok"],["ki","ếp"],["F","l"],["H","O"],["ha","w"],["c","end"],["Pr","of"],["H","as"],["G","P"],["C","all"],["to","ri"],["qu","át"],["P","ers"],["ma","gn"],["M","ag"],["H","ou"],["en","ab"],["ak","ed"],["ot","ed"],["F","red"],["o","on"],["th","áp"],["kh","ẩn"],["po","in"],["re","in"],["đ","ắt"],["U","se"],["odu","c"],["b","ble"],["m","ask"],["Ch","ào"],["c","en"],["sp","ok"],["law","y"],["J","our"],["Tal","k"],["khó","i"],["ill","a"],["b","á"],["L","iệu"],["x","ơ"],["and","a"],["h","ỏa"],["n","ạ"],["n","an"],["r","ực"],["s","ale"],["ẻ","o"],["L","ễ"],["em","br"],["bow","l"],["F","al"],["m","ắm"],["cu","it"],["r","ỡ"],["gi","e"],["t","ứ"],["ch","ao"],["Gi","ao"],["I","R"],["Lu","ke"],["th","ổi"],["N","ơi"],["mo","s"],["br","id"],["R","ams"],["su","mp"],["D","ol"],["St","an"],["c","ắn"],["tim","s"],["ra","il"],["B","lo"],["w","ra"],["gh","ép"],["to","i"],["Me","an"],["nh","ãn"],["B","ri"],["g","ạch"],["A","A"],["B","ab"],["S","um"],["T","ham"],["c","ắm"],["th","ọ"],["cer","y"],["ret","t"],["fle","x"],["Si","x"],["ho","á"],["n","én"],["l","ăn"],["nh","ị"],["are","t"],["Ky","le"],["H","iệp"],["E","U"],["Jo","ck"],["V","ol"],["Li","u"],["d","ắt"],["k","ni"],["w","hel"],["gh","an"],["p","up"],["H","ạnh"],["mỉ","m"],["C","i"],["ig","no"],["V","ĩnh"],["Á","nh"],["un","te"],["B","M"],["b","ê"],["V","ấn"],["đ","ắc"],["N","ẵng"],["Y","et"],["Lo","ại"],["re","ck"],["ath","y"],["t","á"],["P","ac"],["B","ank"],["H","or"],["ou","p"],["vi","ễn"],["T","hai"],["od","d"],["x","ào"],["Th","o"],["N","ào"],["j","ail"],["ti","ps"],["J","ets"],["M","L"],["F","F"],["is","at"],["Stu","d"],["Đ","ánh"],["ol","es"],["E","gy"],["K","a"],["C","ử"],["D","om"],["el","k"],["L","ấy"],["M","ày"],["bi","e"],["Ro","ck"],["in","i"],["Ch","ân"],["G","B"],["G","D"],["p","lo"],["ch","ợt"],["H","ữu"],["C","ầu"],["I","A"],["in","ct"],["Ar","my"],["Lo","an"],["st","it"],["min","i"],["It","al"],["Đ","ề"],["tr","ân"],["ne","u"],["iz","es"],["ne","i"],["HL","V"],["it","im"],["ph","áo"],["ti","er"],["n","ếp"],["Re","ad"],["C","as"],["it","z"],["v","áy"],["An","na"],["ki","lo"],["ag","u"],["Â","m"],["ng","ầm"],["F","ort"],["W","ay"],["d","ust"],["sal","t"],["hi","ến"],["ã","nh"],["D","A"],["đ","ắn"],["W","all"],["t","ụi"],["b","èn"],["Ngh","ệ"],["tre","m"],["R","O"],["qu","ét"],["v","inh"],["kh","ẽ"],["R","ad"],["s","che"],["b","ội"],["v","ất"],["tr","ục"],["p","g"],["H","it"],["J","ac"],["b","ust"],["ro","se"],["o","re"],["on","ed"],["sy","mb"],["S","ay"],["W","W"],["z","ona"],["M","as"],["F","ar"],["Su","b"],["ch","ẽ"],["ố","p"],["ath","s"],["T","ao"],["en","a"],["hi","ền"],["ite","c"],["K","ans"],["or","at"],["B","ắt"],["b","ùng"],["An","th"],["wh","is"],["ic","y"],["H","ậu"],["bi","ke"],["b","ấy"],["sc","al"],["s","ke"],["đ","ao"],["pi","pe"],["E","r"],["N","u"],["er","as"],["p","am"],["in","y"],["u","ra"],["m","óng"],["N","ate"],["r","hy"],["sp","a"],["v","ary"],["c","ous"],["f","ab"],["S","qu"],["d","un"],["Đ","ất"],["We","b"],["De","mo"],["tr","ap"],["ar","ts"],["C","àng"],["see","k"],["B","att"],["ian","a"],["d","án"],["cal","c"],["bur","g"],["ly","n"],["li","o"],["L","ạc"],["l","ấp"],["ặ","m"],["but","t"],["Đ","ăng"],["x","íu"],["T","ần"],["H","an"],["l","ỏng"],["m","ers"],["re","k"],["j","pg"],["t","ank"],["d","ict"],["h","ò"],["thì","a"],["in","n"],["b","ốc"],["T","ar"],["ca","ke"],["H","al"],["r","ant"],["sp","r"],["av","a"],["gi","ọt"],["Ki","ếm"],["J","am"],["B","on"],["D","all"],["s","ắm"],["ệ","n"],["be","th"],["cut","s"],["tr","um"],["aw","n"],["ng","ột"],["h","à"],["M","O"],["ab","s"],["x","ạ"],["H","ot"],["d","uty"],["Đ","ồ"],["rup","t"],["A","sh"],["R","ay"],["t","one"],["C","N"],["gi","am"],["đ","àm"],["gh","ed"],["de","ar"],["V","inh"],["pr","on"],["il","ty"],["Dam","n"],["Su","ch"],["cur","s"],["x","ay"],["kh","ấu"],["E","L"],["ca","ve"],["Qu","ản"],["s","lo"],["bu","g"],["run","k"],["app","y"],["Tu","ổi"],["Đ","ộng"],["X","e"],["p","ul"],["nh","ở"],["C","at"],["h","ằng"],["D","enn"],["ob","li"],["C","á"],["or","g"],["li","ft"],["br","uh"],["di","ve"],["row","s"],["F","ur"],["ut","ed"],["Fo","od"],["i","x"],["So","ci"],["đ","un"],["tal","s"],["T","w"],["K","ỹ"],["H","ad"],["m","ổ"],["D","rew"],["b","age"],["G","ần"],["A","sia"],["f","ici"],["ne","ls"],["m","ượn"],["cor","n"],["um","ps"],["A","ss"],["mo","od"],["L","ew"],["đã","i"],["M","ont"],["U","B"],["n","ạp"],["Cha","p"],["Ho","ly"],["F","ind"],["S","ir"],["gi","ặt"],["Ti","k"],["đ","ảng"],["đ","òn"],["ti","ễn"],["y","i"],["ne","st"],["v","ây"],["ign","s"],["W","ild"],["b","by"],["T","ú"],["d","ạo"],["C","ăn"],["de","m"],["S","ho"],["C","át"],["ex","hi"],["k","he"],["P","or"],["g","lu"],["as","is"],["S","ống"],["t","ồi"],["ex","tr"],["th","ắt"],["ị","t"],["ven","i"],["lt","ed"],["T","ốt"],["r","r"],["C","L"],["đ","e"],["họ","ng"],["G","I"],["C","lu"],["j","ack"],["ter","w"],["O","pen"],["pe","l"],["d","iệu"],["w","id"],["co","at"],["na","p"],["Th","us"],["rer","s"],["M","od"],["n","ộp"],["D","C"],["t","àng"],["we","ed"],["gh","o"],["em","ic"],["ta","st"],["x","ỉ"],["H","IV"],["gi","òn"],["V","I"],["n","ắp"],["It","s"],["x","ông"],["Đ","ơn"],["ng","ợi"],["Be","i"],["B","áo"],["m","ạn"],["ac","qu"],["pre","c"],["K","ar"],["h","âm"],["T","ạo"],["im","al"],["l","ers"],["k","ệ"],["w","rap"],["b","ol"],["r","èn"],["wo","ke"],["th","ự"],["T","ới"],["edu","c"],["m","ầm"],["th","ép"],["T","ối"],["l","ướt"],["she","l"],["d","ers"],["Lo","s"],["d","ưa"],["p","ace"],["H","un"],["Re","g"],["b","ón"],["x","ả"],["m","anh"],["D","ev"],["kho","e"],["en","or"],["O","w"],["La","ke"],["D","anh"],["gh","é"],["or","it"],["d","ồn"],["re","me"],["mo","sp"],["H","mm"],["K","now"],["ter","a"],["fo","ol"],["U","R"],["N","avy"],["đ","ống"],["r","ũ"],["in","fe"],["pp","y"],["t","ò"],["M","P"],["ch","am"],["Th","úy"],["V","ợ"],["Bi","ên"],["M","àu"],["T","ám"],["tr","ay"],["Cử","u"],["f","is"],["re","on"],["kh","ôi"],["Ngh","ĩ"],["bo","ot"],["S","ame"],["N","BA"],["I","ll"],["Ch","ất"],["kne","e"],["at","tr"],["Qu","ỷ"],["aut","y"],["re","ha"],["E","ric"],["cl","ar"],["Ra","id"],["t","óm"],["ho","ly"],["man","i"],["fr","ac"],["m","ũ"],["M","oun"],["V","in"],["P","M"],["s","ack"],["ph","ổi"],["d","ập"],["pl","ot"],["R","un"],["M","ón"],["Jew","s"],["E","nd"],["d","ump"],["h","òn"],["n","is"],["z","il"],["P","a"],["pl","ed"],["D","ec"],["ach","e"],["do","ng"],["h","ái"],["ph","s"],["mu","se"],["kh","uy"],["vi","ly"],["b","ắc"],["g","all"],["And","y"],["C","ast"],["H","ợp"],["đo","ạt"],["H","án"],["Tr","u"],["su","e"],["X","i"],["n","ôn"],["Bu","ll"],["t","ần"],["S","ản"],["ge","ly"],["p","us"],["ý","t"],["and","y"],["x","ích"],["blo","g"],["L","ar"],["Fi","re"],["v","ar"],["o","le"],["Lu","ôn"],["d","ốc"],["m","g"],["v","ỗ"],["T","I"],["p","ac"],["r","ồng"],["h","ors"],["hi","ếu"],["e","nh"],["d","ặn"],["can","s"],["E","lec"],["b","ực"],["đ","ứt"],["or","al"],["H","T"],["k","iệt"],["T","ot"],["z","ard"],["c","úi"],["cat","s"],["R","õ"],["H","A"],["to","ng"],["ut","en"],["E","cho"],["el","ly"],["ad","ed"],["r","ộn"],["nh","ặt"],["b","b"],["H","ổ"],["C","ục"],["H","ard"],["Tr","à"],["sa","il"],["ri","e"],["ch","as"],["L","ợi"],["h","ở"],["ti","le"],["m","âu"],["ong","o"],["du","ck"],["O","oh"],["r","ice"],["F","a"],["O","ri"],["v","ách"],["men","u"],["u","ish"],["M","ời"],["d","ũng"],["C","e"],["vis","i"],["x","ăng"],["g","õ"],["er","ne"],["c","ởi"],["ex","ha"],["Đ","êm"],["so","m"],["Bo","y"],["b","ind"],["t","ent"],["P","it"],["k","í"],["M","au"],["b","ể"],["Đ","inh"],["c","úng"],["E","M"],["M","ộc"],["lo","go"],["el","es"],["h","ét"],["r","s"],["Nh","ớ"],["co","op"],["Vi","êm"],["ph","an"],["M","ạnh"],["J","i"],["C","amp"],["vo","i"],["N","one"],["n","âu"],["D","y"],["l","ồng"],["Clu","b"],["n","ốt"],["tu","m"],["B","ru"],["C","ody"],["le","m"],["P","aim"],["ot","er"],["Gi","úp"],["Ki","ều"],["tu","it"],["m","ốc"],["P","D"],["ast","s"],["ho","c"],["em","an"],["te","l"],["Nh","u"],["Hi","ểu"],["d","ic"],["sy","nd"],["w","is"],["He","ll"],["Ki","ểm"],["C","C"],["Ro","se"],["B","ăng"],["Bu","ff"],["en","jo"],["S","top"],["ci","a"],["l","ăng"],["to","re"],["L","ịch"],["tr","ội"],["cu","re"],["D","ie"],["ed","i"],["c","ạn"],["L","ệ"],["A","li"],["Ch","ín"],["v","ĩnh"],["Gi","ữa"],["B","at"],["T","ỉnh"],["cry","p"],["c","ute"],["fle","w"],["H","ằng"],["ot","es"],["F","lo"],["C","li"],["Z","ach"],["l","ật"],["ế","ch"],["ga","z"],["H","uh"],["d","rew"],["n","od"],["p","and"],["el","a"],["S","I"],["nh","áy"],["G","ard"],["M","ang"],["B","or"],["p","ra"],["ch","ậu"],["khí","a"],["Ngh","ị"],["na","vi"],["Ma","ho"],["tu","be"],["od","ds"],["ga","i"],["H","ỏa"],["b","ite"],["Nh","ạc"],["T","A"],["S","her"],["er","ia"],["he","li"],["gon","s"],["gi","án"],["Đ","ạt"],["s","per"],["ch","el"],["hi","l"],["pro","p"],["h","ít"],["Ki","ến"],["c","um"],["te","ar"],["Sh","an"],["Bi","ển"],["F","ord"],["p","m"],["tr","al"],["P","R"],["th","ô"],["iz","on"],["O","R"],["d","ẹp"],["id","ly"],["D","ai"],["ch","âm"],["be","ef"],["đ","ụng"],["kh","ao"],["Đ","ộc"],["ul","um"],["V","it"],["B","ush"],["br","ut"],["di","re"],["ut","ch"],["g","ũi"],["gr","id"],["Kh","ắc"],["D","J"],["m","ảng"],["Đ","an"],["đ","ai"],["ma","x"],["re","nd"],["ri","x"],["gu","id"],["d","ã"],["D","ri"],["u","ate"],["ph","ơi"],["d","ại"],["c","ành"],["wo","re"],["K","at"],["B","us"],["M","em"],["si","e"],["C","A"],["d","ens"],["E","ner"],["add","y"],["đ","ồi"],["S","et"],["ng","ào"],["cu","e"],["ch","ém"],["X","ong"],["ưở","i"],["v","ươn"],["fr","on"],["A","ra"],["ch","ớp"],["ri","or"],["l","lec"],["ho","ại"],["Kh","ả"],["r","ễ"],["ce","re"],["se","le"],["Be","li"],["L","ỗ"],["W","ord"],["st","a"],["ain","t"],["v","ag"],["R","en"],["the","w"],["k","u"],["s","ờ"],["Ar","t"],["T","em"],["f","its"],["s","ụp"],["Po","st"],["K","ế"],["so","ạn"],["ad","er"],["B","O"],["K","H"],["F","er"],["Th","ất"],["pe","ak"],["H","ur"],["Chi","a"],["be","er"],["up","d"],["fli","x"],["k","ĩ"],["m","í"],["P","en"],["jud","g"],["New","s"],["ond","s"],["Ô","n"],["Đ","ặt"],["si","o"],["Car","r"],["M","ở"],["l","is"],["Fo","x"],["tiệ","m"],["CE","O"],["Ph","ía"],["H","ung"],["Th","ơ"],["C","are"],["S","us"],["ye","ll"],["b","ì"],["no","de"],["L","ộc"],["S","on"],["T","est"],["S","ách"],["zz","le"],["ch","ảo"],["ti","ck"],["d","ội"],["g","ạt"],["I","re"],["nh","ịn"],["B","ồ"],["U","r"],["m","ặn"],["ra","pe"],["x","ôi"],["lo","a"],["xo","a"],["Y","ear"],["l","ộc"],["T","ed"],["B","ad"],["B","àn"],["C","ry"],["F","ree"],["tr","âu"],["h","àn"],["bu","ff"],["G","un"],["ch","áo"],["br","ow"],["K","ir"],["am","ed"],["T","ha"],["m","ông"],["L","ED"],["sim","p"],["me","l"],["qu","ạt"],["or","a"],["gh","ê"],["se","as"],["m","òn"],["Đ","ô"],["cu","ộn"],["A","FC"],["K","n"],["b","óp"],["b","un"],["wi","ch"],["B","ánh"],["l","ens"],["t","ê"],["lu","ộc"],["x","ế"],["phí","m"],["P","ort"],["co","ck"],["g","ãy"],["L","ear"],["Did","n"],["J","al"],["C","ons"],["Đ","àn"],["sy","m"],["v","ã"],["WW","E"],["fe","e"],["L","ab"],["bỏ","ng"],["đ","ắng"],["g","ừng"],["ch","ê"],["su","ối"],["ca","i"],["v","ặt"],["G","al"],["K","u"],["b","ai"],["S","pr"],["pl","u"],["B","é"],["ng","ốc"],["su","ic"],["r","áo"],["br","an"],["b","lu"],["lan","e"],["re","ar"],["mon","o"],["su","lt"],["f","ant"],["Đ","áng"],["ch","ằm"],["g","ác"],["v","acy"],["Kh","ác"],["T","ùy"],["nh","ục"],["pl","ug"],["Tr","ả"],["d","àn"],["l","õi"],["ng","ô"],["ond","a"],["d","ở"],["l","ơ"],["We","re"],["igh","b"],["V","ạn"],["an","ne"],["me","ga"],["G","or"],["T","ừng"],["n","ang"],["nh","ăn"],["Al","ab"],["C","R"],["l","ọt"],["S","ức"],["if","fe"],["god","s"],["Y","ến"],["dir","t"],["Te","am"],["T","àu"],["c","in"],["st","ad"],["sna","p"],["e","ed"],["er","ce"],["Tr","y"],["Đ","T"],["s","ate"],["L","ên"],["h","ụt"],["ir","at"],["Se","th"],["T","ỷ"],["b","ong"],["bag","s"],["G","ala"],["k","ar"],["li","ps"],["Is","n"],["l","ót"],["J","ava"],["T","ai"],["ug","ly"],["s","anh"],["E","C"],["v","oc"],["n","uốt"],["Đ","ọc"],["Tr","ở"],["en","zy"],["pe","te"],["L","ạt"],["ch","è"],["th","ir"],["g","li"],["Tr","í"],["G","lo"],["ch","up"],["Ch","an"],["P","ur"],["ri","m"],["Đ","ều"],["on","er"],["ab","ol"],["L","ink"],["d","âng"],["sle","e"],["M","ô"],["tr","ật"],["s","ưng"],["P","enn"],["r","us"],["to","l"],["ld","s"],["N","ay"],["Spe","a"],["lũ","y"],["M","om"],["f","us"],["fol","k"],["ask","s"],["vị","t"],["V","ụ"],["ng","ụ"],["th","on"],["C","av"],["M","ẫu"],["t","úng"],["ble","w"],["c","ers"],["o","red"],["NF","C"],["Sa","fe"],["co","lo"],["F","an"],["ob","s"],["s","ườn"],["ch","ốc"],["o","oh"],["T","un"],["F","ri"],["nh","ức"],["U","s"],["id","at"],["P","y"],["b","ến"],["F","air"],["ma","gi"],["E","N"],["ch","ay"],["mat","t"],["đ","ầm"],["L","ập"],["N","ằm"],["Mc","D"],["ni","g"],["ề","ng"],["pe","st"],["C","ri"],["ng","ục"],["M","et"],["n","ick"],["Ô","i"],["ph","ế"],["mon","y"],["F","all"],["e","go"],["p","ad"],["F","A"],["M","it"],["C","ửa"],["E","ld"],["M","C"],["ou","ch"],["D","ata"],["v","ard"],["sc","or"],["N","O"],["phi","a"],["J","ake"],["M","ùa"],["U","V"],[" "," "],["ử","ng"],["SE","AL"],["N","ông"],["T","ùng"],["ci","g"],["L","as"],["c","ống"],["P","ak"],["X","S"],["is","te"],["c","ược"],["x","à"],["P","ad"],["ad","or"],["E","i"],["B","ối"],["n","ô"],["tr","ơn"],["A","p"],["s","ạc"],["b","ôi"],["te","ed"],["sa","ke"],["th","al"],["j","am"],["Ng","ũ"],["US","A"],["Đ","ỗ"],["ei","gh"],["L","âu"],["P","ot"],["aw","a"],["D","ak"],["r","ụng"],["l","ít"],["sh","r"],["E","le"],["d","up"],["et","te"],["Wor","k"],["đ","ỗ"],["đ","úc"],["so","c"],["b","ars"],["Co","ll"],["S","O"],["L","ady"],["m","ỏ"],["fla","v"],["b","ã"],["p","ens"],["m","úa"],["ng","ự"],["M","use"],["bi","z"],["u","a"],["ith","m"],["nh","ã"],["C","à"],["c","ỗ"],["k","ẽ"],["l","ánh"],["ma","ge"],["can","e"],["kh","ép"],["su","l"],["G","l"],["er","gr"],["sub","s"],["se","al"],["t","ú"],["k","n"],["Be","ll"],["s","tor"],["th","ản"],["S","ĩ"],["UB","ND"],["P","op"],["ce","il"],["II","I"],["đ","ạm"],["kh","âu"],["C","ase"],["s","ket"],["ng","ây"],["L","ực"],["M","ul"],["mon","d"],["ami","e"],["la","be"],["is","a"],["l","ứa"],["m","ắng"],["H","ỏi"],["ax","it"],["t","les"],["on","so"],["A","rab"],["k","it"],["Mu","ch"],["V","R"],["fe","es"],["ok","er"],["b","ẩm"],["el","f"],["p","ink"],["F","ami"],["j","et"],["ray","s"],["x","ám"],["em","s"],["Qu","ay"],["S","ang"],["P","sy"],["Th","ừa"],["chu","i"],["Bi","o"],["cụ","m"],["a","the"],["J","ane"],["D","ig"],["P","as"],["R","on"],["T","our"],["le","af"],["Ú","c"],["H","ang"],["Guy","s"],["L","E"],["M","ong"],["L","ôi"],["na","il"],["h","ông"],["ask","a"],["li","pp"],["mi","um"],["yo","ga"],["d","ỗ"],["cự","u"],["t","úy"],["ro","l"],["L","O"],["wi","pe"],["M","I"],["ng","ứa"],["it","ar"],["đ","uối"],["d","ãy"],["th","ầu"],["ch","en"],["l","ê"],["D","iệp"],["x","ổ"],["Th","âm"],["d","ặm"],["s","ỹ"],["il","es"],["ù","n"],["E","ver"],["li","me"],["H","ết"],["s","ẹo"],["b","ump"],["ò","m"],["Đ","âu"],["H","S"],["N","S"],["al","t"],["Fu","ll"],["cá","m"],["B","es"],["sel","s"],["H","ic"],["Ar","ch"],["M","ars"],["u","be"],["co","se"],["P","O"],["d","ar"],["B","ách"],["co","pe"],["C","re"],["ea","k"],["To","o"],["ch","ọc"],["X","ây"],["l","um"],["who","a"],["gh","en"],["m","um"],["ch","ìa"],["F","ac"],["Kh","ó"],["l","ạm"],["bơ","m"],["D","iệu"],["O","li"],["f","ru"],["Gi","ảm"],["Fo","re"],["g","ly"],["O","re"],["t","ết"],["im","pl"],["G","ir"],["d","ẻo"],["E","con"],["V","o"],["b","ế"],["k","ẹo"],["op","hi"],["US","B"],["P","ic"],["tr","ạm"],["pi","x"],["por","n"],["do","se"],["e","z"],["Ki","ên"],["I","ron"],["Nh","ã"],["ap","s"],["Th","ổ"],["Ch","ế"],["Ki","ểu"],["ri","p"],["v","ứt"],["Ph","ục"],["G","ì"],["Wo","od"],["Ho","ài"],["l","éo"],["mu","ội"],["y","ze"],["b","ass"],["ve","t"],["su","me"],["Co","ok"],["đi","ềm"],["n","n"],["v","ung"],["ho","i"],["ari","a"],["l","ầu"],["th","ly"],["Nh","óm"],["Hel","p"],["du","al"],["sh","ed"],["R","I"],["U","ống"],["mat","o"],["D","O"],["ado","p"],["Le","g"],["S","tay"],["pi","le"],["L","òng"],["gì","n"],["củ","ng"],["ai","i"],["D","ad"],["H","one"],["g","le"],["n","ứt"],["ou","tr"],["bi","es"],["Q","U"],["ma","ps"],["bur","y"],["K","ính"],["c","õi"],["tr","ễ"],["An","ne"],["N","C"],["f","um"],["b","ic"],["c","ắp"],["ho","an"],["u","tic"],["wor","n"],["Mu","a"],["T","ứ"],["U","nd"],["cra","w"],["k","ẹt"],["đ","ắm"],["ư","ỡi"],["ol","a"],["une","x"],["b","óc"],["Bu","c"],["j","ur"],["m","ộc"],["xu","ôi"],["B","óng"],["n","ut"],["đ","ếm"],["T","es"],["Đ","ứng"],["t","ọa"],["ir","m"],["x","é"],["ph","or"],["Í","t"],["G","ary"],["NA","SA"],["H","iệu"],["ll","en"],["lu","x"],["A","k"],["di","al"],["up","st"],["kh","ơi"],["D","or"],["J","en"],["P","ick"],["v","als"],["li","ze"],["pe","ts"],["s","que"],["in","hi"],["D","em"],["x","en"],["D","ĩ"],["m","ies"],["aw","k"],["Bu","dd"],["th","ur"],["ng","ẫu"],["es","is"],["No","pe"],["t","à"],["mo","ld"],["Bo","om"],["i","bil"],["D","S"],["d","ì"],["đ","è"],["u","x"],["di","um"],["n","é"],["d","ồi"],["tr","ĩ"],["n","ến"],["J","on"],["mi","a"],["ak","a"],["M","B"],["E","ve"],["Bu","ổi"],["a","vi"],["w","ick"],["ro","g"],["u","til"],["w","and"],["uy","ễn"],["S","c"],["b","ừng"],["p","our"],["ro","pe"],["Tr","ị"],["th","ốt"],["Ng","ư"],["Th","ụy"],["C","ro"],["y","y"],["Xu","ất"],["Li","ve"],["n","êm"],["Đ","ưa"],["Al","an"],["m","ồi"],["mar","i"],["So","i"],["ra","pp"],["s","út"],["Hi","ền"],["Fi","gu"],["Ze","al"],["By","e"],["De","ad"],["j","est"],["N","int"],["Le","on"],["Á","o"],["s","lot"],["t","ơ"],["di","am"],["Op","pe"],["s","ink"],["pre","v"],["sh","u"],["ca","fe"],["ah","an"],["c","ớ"],["v","ú"],["B","est"],["tr","ọ"],["w","olf"],["P","ass"],["số","c"],["bre","w"],["K","am"],["ol","ly"],["W","ars"],["o","v"],["ion","e"],["J","r"],["om","s"],["n","ám"],["tư","ới"],["gi","ơ"],["đệ","m"],["de","er"],["i","val"],["b","ổng"],["be","ts"],["do","l"],["F","BI"],["ch","ẩn"],["O","t"],["has","h"],["tr","án"],["t","ạ"],["H","on"],["U","su"],["h","ưu"],["r","ét"],["R","S"],["h","ắc"],["mã","nh"],["os","is"],["Ro","ad"],["tr","ắc"],["D","ark"],["s","mar"],["pr","ic"],["H","I"],["k","ỵ"],["ch","y"],["bo","ld"],["m","ice"],["cho","o"],["r","ẽ"],["en","de"],["C","T"],["To","án"],["w","ars"],["x","ách"],["AM","D"],["A","E"],["st","un"],["b","ách"],["ir","s"],["in","se"],["ma","st"],["C","B"],["ch","ur"],["Au","to"],["ar","at"],["tự","u"],["p","ir"],["B","ry"],["pe","e"],["add","s"],["gr","ay"],["Ng","ồi"],["f","ate"],["õ","m"],["S","uy"],["l","one"],["M","ir"],["mp","ic"],["Qu","ận"],["d","ash"],["l","van"],["ge","l"],["u","uh"],["ng","ắt"],["ru","in"],["sp","an"],["m","am"],["Y","out"],["ch","ớ"],["He","ad"],["Aw","es"],["C","hel"],["ke","l"],["ki","ềm"],["R","em"],["A","my"],["d","are"],["g","ắt"],["H","op"],["m","ăng"],["fo","ss"],["Ro","ll"],["th","ỏ"],["F","I"],["Y","an"],["cro","p"],["ti","fy"],["D","un"],["P","ap"],["re","bu"],["m","are"],["ef","ly"],["x","ăm"],["as","hi"],["s","ưu"],["đ","ư"],["gi","l"],["tr","im"],["if","er"],["Y","e"],["i","at"],["J","agu"],["d","ys"],["ru","g"],["An","ti"],["Hu","ệ"],["W","y"],["z","om"],["tr","ùm"],["ni","êm"],["u","el"],["o","án"],["F","und"],["tho","a"],["Thị","t"],["C","ul"],["Z","o"],["iz","en"],["vas","c"],["er","ic"],["M","D"],["b","ẫy"],["pl","as"],["ap","t"],["T","òa"],["W","hoa"],["x","ưng"],["D","al"],["et","ly"],["b","ọt"],["w","an"],["b","ồ"],["m","ùng"],["s","ầu"],["G","re"],["nh","ọn"],["in","ha"],["K","ill"],["m","ập"],["p","tic"],["ch","ửi"],["Or","le"],["t","t"],["h","an"],["bus","h"],["L","ind"],["c","ôn"],["Đ","á"],["th","ám"],["ti","de"],["M","ắt"],["N","apo"],["X","ã"],["L","ào"],["u","nh"],["W","u"],["đ","ạc"],["L","ao"],["D","ần"],["O","per"],["đ","ặn"],["ree","k"],["J","ona"],["V","àng"],["v","ạch"],["m","all"],["app","s"],["R","AM"],["il","a"],["l","us"],["be","an"],["ph","os"],["s","its"],["t","ụng"],["R","el"],["be","ta"],["K","ey"],["M","ơ"],["P","V"],["U","y"],["d","or"],["bé","n"],["Lu","cy"],["h","h"],["D","I"],["O","s"],["c","ọ"],["po","e"],["to","ss"],["ski","p"],["nd","s"],["lar","s"],["việ","t"],["r","ệt"],["li","ếc"],["v","ọt"],["H","ỗ"],["n","ab"],["un","a"],["Th","or"],["K","ẻ"],["N","ăng"],["Ph","ủ"],["put","e"],["Vu","a"],["I","sa"],["h","ố"],["đi","ền"],["R","aw"],["Hi","ếu"],["pe","er"],["um","in"],["am","bi"],["Bab","y"],["d","ino"],["m","art"],["b","ẩy"],["g","ầy"],["bú","n"],["hệ","t"],["V","en"],["v","án"],["mu","d"],["B","án"],["D","ầu"],["L","ãnh"],["ti","re"],["v","ặn"],["ph","p"],["ke","o"],["b","end"],["bl","an"],["l","ặn"],["CP","U"],["au","th"],["x","ì"],["kh","ốn"],["C","ực"],["mu","ôn"],["de","te"],["C","op"],["G","S"],["l","ac"],["Vi","ết"],["b","ồn"],["Đ","au"],["gi","eo"],["ch","ật"],["GD","P"],["N","T"],["ot","y"],["at","te"],["v","uốt"],["z","el"],["M","ah"],["ng","ó"],["T","ấn"],["Gi","ai"],["c","ước"],["an","ni"],["ch","ew"],["Sp","ir"],["mi","ld"],["C","ru"],["k","ic"],["ti","ff"],["C","J"],["T","own"],["đ","ục"],["cá","p"],["bu","ck"],["W","is"],["b","áu"],["h","é"],["rat","s"],["v","ở"],["cả","ng"],["bi","as"],["b","n"],["kh","ử"],["Th","í"],["S","ai"],["I","ce"],["X","ô"],["one","l"],["Ng","ôn"],["J","ess"],["col","n"],["f","itt"],["D","ao"],["C","ars"],["ap","se"],["Bra","d"],["se","st"],["do","pe"],["Le","ad"],["G","am"],["w","age"],["Do","c"],["Ư","u"],["u","c"],["sl","am"],["re","pr"],["d","ưng"],["K","ay"],["S","ony"],["y","ến"],["đ","inh"],["ne","ll"],["Fo","ot"],["o","li"],["x","á"],["R","ick"],["vo","id"],["ng","ẩn"],["er","pr"],["y","ep"],["Ứ","ng"],["S","pec"],["V","ật"],["B","la"],["N","ar"],["đ","ùi"],["qu","er"],["V","ận"],["vi","e"],["Ph","ys"],["M","ươi"],["und","e"],["r","ách"],["c","art"],["he","ck"],["oud","s"],["de","fe"],["G","M"],["bo","il"],["ũ","a"],["G","ọi"],["b","àng"],["Vu","i"],["th","ic"],["v","ắt"],["l","ột"],["t","ước"],["Đ","ời"],["is","it"],["ph","ì"],["Di","ễn"],["s","ếp"],["ụ","a"],["tal","e"],["c","ort"],["e","cho"],["o","an"],["ep","y"],["Ô","NG"],["hi","ếp"],["be","e"],["gi","ặc"],["C","uốn"],["l","ọ"],["dra","g"],["S","ab"],["l","ờ"],["E","s"],["r","ỗng"],["ge","on"],["C","had"],["l","ấn"],["tax","i"],["th","m"],["L","ess"],["m","ồm"],["F","ish"],["ni","gg"],["F","err"],["B","ùi"],["v","on"],["E","A"],["E","xt"],["n","ons"],["se","mi"],["mo","le"],["vi","be"],["n","ản"],["Li","br"],["M","ess"],["ng","õ"],["D","ick"],["d","ê"],["r","ưỡi"],["ab","ul"],["ri","to"],["Th","ọ"],["sa","ch"],["g","au"],["in","er"],["ch","ôn"],["ho","ãn"],["cal","i"],["m","ush"],["t","ăm"],["A","J"],["ob","st"],["sou","p"],["st","am"],["j","uni"],["có","c"],["S","S"],["r","ủ"],["T","X"],["S","po"],["D","er"],["ú","n"],["H","ea"],["b","ộc"],["h","m"],["s","ói"],["T","rey"],["t","ren"],["h","ou"],["gre","y"],["Q","L"],["o","gra"],["ar","is"],["ex","it"],["B","ỏ"],["C","ập"],["ro","ph"],["v","ờ"],["ff","le"],["v","ớt"],["đ","ấm"],["k","ề"],["B","á"],["P","rab"],["ch","in"],["h","ăng"],["n","ấy"],["st","ag"],["es","ar"],["lic","s"],["D","ựa"],["F","ast"],["v","ắc"],["Je","an"],["c","ưng"],["nh","ấp"],["B","ích"],["V","ệ"],["A","gen"],["r","ỉ"],["ild","s"],["T","ĩnh"],["ơ","m"],["We","ek"],["ot","on"],["de","ta"],["B","all"],["mon","i"],["Mo","on"],["r","itu"],["M","ind"],["Li","ễu"],["Kir","k"],["s","ons"],["G","ặp"],["K","ích"],["K","it"],["g","um"],["l","st"],["hy","pe"],["Gi","áp"],["cli","m"],["ch","ốn"],["G","ã"],["đ","ậy"],["l","ười"],["ic","on"],["Ok","la"],["T","ớ"],["ng","ỡ"],["to","an"],["t","ùng"],["to","e"],["sc","re"],["sho","e"],["r","ảnh"],["c","tic"],["k","is"],["do","s"],["Kh","ởi"],["A","z"],["K","id"],["m","ot"],["M","es"],["đư","c"],["ã","m"],["zo","om"],["M","ine"],["le","ak"],["em","en"],["les","h"],["ad","mi"],["ou","l"],["tr","am"],["ho","ma"],["il","le"],["H","z"],["x","ót"],["Th","ử"],["C","ẩm"],["M","VP"],["Z","ero"],["x","ài"],["qu","ấy"],["gr","an"],["T","an"],["p","ond"],["a","er"],["B","ỗng"],["l","anh"],["So","on"],["Ê","N"],["M","ùi"],["D","ược"],["G","ri"],["G","rey"],["L","S"],["ju","j"],["P","ra"],["a","qu"],["end","y"],["h","ước"],["Qu","án"],["se","ng"],["T","ống"],["ad","en"],["De","e"],["Sa","id"],["to","ps"],["K","ỷ"],["M","ức"],["co","ps"],["ID","S"],["R","ằng"],["r","âu"],["ng","ơ"],["g","ầm"],["n","ếm"],["v","óc"],["to","es"],["can","o"],["ng","ần"],["s","úc"],["un","qu"],["S","ign"],["V","ài"],["Th","ức"],["C","ấp"],["p","se"],["R","ho"],["sc","ul"],["Mc","C"],["Not","e"],["c","ồn"],["ne","at"],["lu","ân"],["p","H"],["Wr","it"],["V","A"],["en","su"],["UR","L"],["d","ney"],["al","li"],["qu","ỳ"],["mat","s"],["H","im"],["Đi","ền"],["x","ô"],["vis","e"],["M","ain"],["n","in"],["w","art"],["x","on"],["ta","h"],["cl","ay"],["ho","mo"],["fi","li"],["R","A"],["S","át"],["L","I"],["L","ạp"],["f","art"],["g","low"],["sp","ar"],["Vi","ew"],["C","el"],["r","it"],["U","C"],["b","ệ"],["to","y"],["of","t"],["vis","a"],["R","ap"],["ng","ạo"],["gi","g"],["mo","is"],["ph","ô"],["nh","át"],["E","v"],["H","and"],["i","Pad"],["qu","ấn"],["W","olf"],["m","ist"],["R","NA"],["th","ối"],["po","o"],["ED","H"],["l","én"],["ươ","m"],["ng","ất"],["ai","re"],["g","ục"],["e","uro"],["D","iện"],["aim","s"],["b","ăm"],["nh","ổ"],["We","i"],["ki","êu"],["As","k"],["y","l"],["Ma","de"],["S","now"],["Ph","á"],["nat","i"],["O","C"],["G","ro"],["Y","up"],["To","y"],["sli","p"],["L","á"],["L","ộ"],["Đ","ặng"],["pe","ll"],["TH","E"],["as","ha"],["Vi","ễn"],["si","al"],["ird","s"],["s","ỏi"],["ph","is"],["do","ck"],["Du","ke"],["fra","g"],["D","òng"],["Ro","ss"],["ac","re"],["Ser","v"],["m","ph"],["th","ề"],["H","ong"],["b","ỉ"],["Đ","ấu"],["S","had"],["x","í"],["ci","um"],["C","it"],["s","ni"],["ine","t"],["Gi","ữ"],["Cav","s"],["T","ải"],["n","àn"],["Gi","ấy"],["N","in"],["Tr","ận"],["x","ide"],["qu","ir"],["C","ai"],["T","ro"],["ro","bi"],["kì","a"],["av","o"],["X","ét"],["ac","co"],["gn","iz"],["mẹ","o"],["Co","le"],["nh","ủ"],["a","gon"],["c","ti"],["P","ier"],["pl","um"],["ul","f"],["w","w"],["mà","i"],["CL","B"],["K","ong"],["Á","p"],["ip","ul"],["ax","is"],["m","âm"],["al","es"],["c","lue"],["ar","re"],["l","ó"],["e","e"],["the","d"],["P","os"],["j","aw"],["t","wel"],["A","y"],["k","ful"],["nh","ọc"],["C","inc"],["n","ch"],["ne","ys"],["ci","at"],["G","il"],["l","ân"],["S","P"],["re","ls"],["Ear","l"],["c","ối"],["S","C"],["G","on"],["o","van"],["tu","i"],["ps","on"],["Ph","ù"],["E","F"],["ft","en"],["g","ấu"],["Ch","ăm"],["B","ảng"],["le","on"],["l","ou"],["l","ội"],["sh","er"],["p","ale"],["mo","i"],["TH","PT"],["ul","ed"],["Bi","ểu"],["J","enn"],["E","PA"],["d","âm"],["ac","ce"],["air","y"],["b","ăn"],["kh","ỉ"],["ust","y"],["k","iss"],["po","le"],["vi","an"],["d","um"],["b","ark"],["P","lat"],["k","ép"],["me","re"],["F","un"],["lã","m"],["E","f"],["k","ìm"],["Lu","ân"],["r","ớt"],["ele","v"],["h","ưng"],["N","ic"],["le","ap"],["ắ","k"],["an","ed"],["g","ào"],["sh","in"],["G","O"],["Co","i"],["K","hai"],["is","ha"],["đ","ũa"],["to","ys"],["ned","y"],["s","âm"],["kho","ẻ"],["t","ánh"],["s","ừng"],["E","u"],["Y","i"],["al","it"],["K","ids"],["Po","pe"],["mi","êu"],["B","ữa"],["i","ac"],["S","uốt"],["ag","ra"],["X","box"],["h","á"],["Co","de"],["f","s"],["p","ine"],["po","l"],["S","hu"],["im","mi"],["L","ớp"],["N","ig"],["ge","es"],["Đ","ậu"],["si","bi"],["fat","i"],["G","ene"],["ch","et"],["S","ad"],["S","ac"],["fo","x"],["P","ep"],["h","up"],["C","lau"],["c","ấy"],["đ","ính"],["Đo","ạn"],["l","ách"],["ur","b"],["H","ắc"],["C","ầm"],["L","es"],["v","âng"],["z","he"],["si","pp"],["mu","nd"],["ap","or"],["L","D"],["ri","el"],["N","X"],["M","ach"],["N","on"],["m","ượt"],["cl","am"],["N","vid"],["f","led"],["v","am"],["đ","ọng"],["cr","at"],["S","wi"],["O","x"],["Đ","ảo"],["j","ar"],["in","fo"],["ự","u"],["ren","s"],["I","r"],["M","ôi"],["Đ","ứa"],["Sw","ed"],["n","ộ"],["pe","ti"],["V","D"],["t","át"],["mon","t"],["Hal","f"],["ng","ẫm"],["en","ix"],["kh","am"],["L","en"],["S","k"],["Đ","ột"],["Ch","ờ"],["h","ạch"],["N","IC"],["ú","m"],["vi","v"],["R","ang"],["re","no"],["go","m"],["vụ","n"],["M","ất"],["di","gg"],["mi","er"],["D","ro"],["N","ine"],["P","ear"],["Si","êu"],["ớ","c"],["W","ent"],["nh","ai"],["D","M"],["F","at"],["H","C"],["g","ậy"],["nh","am"],["um","es"],["d","ào"],["ro","d"],["j","an"],["L","ow"],["S","hop"],["ro","de"],["Tu","ần"],["A","IDS"],["Đ","àm"],["sor","b"],["lay","s"],["or","o"],["M","ack"],["j","unc"],["so","da"],["ad","i"],["X","ác"],["ok","s"],["Bi","ến"],["B","át"],["C","ut"],["R","id"],["F","la"],["M","ạc"],["o","gy"],["h","ãm"],["de","em"],["ep","id"],["l","ở"],["bu","gs"],["M","ật"],["Ng","ôi"],["Z","hu"],["a","es"],["ta","gs"],["if","i"],["ran","e"],["z","ens"],["Th","er"],["Ch","ạy"],["ob","es"],["i","Tun"],["war","n"],["ep","ic"],["VP","N"],["gi","ã"],["P","au"],["M","iz"],["c","ke"],["ox","id"],["r","ể"],["đo","an"],["M","U"],["sk","u"],["s","ấy"],["M","ông"],["h","án"],["Ab","ra"],["V","ill"],["re","a"],["ok","ed"],["c","ac"],["và","nh"],["Sim","s"],["e","in"],["Ấ","y"],["ng","ửa"],["v","òi"],["F","ro"],["c","ừ"],["un","ne"],["vac","u"],["G","A"],["S","mo"],["so","li"],["b","ast"],["sp","at"],["K","ur"],["flo","p"],["F","O"],["j","ung"],["De","ep"],["Th","ẩm"],["N","ai"],["l","add"],["Đ","ám"],["Tr","ải"],["v","ít"],["us","al"],["qu","ad"],["sof","a"],["N","I"],["U","ber"],["P","E"],["G","ab"],["en","na"],["br","on"],["n","ish"],["L","ựa"],["M","ộng"],["SE","O"],["S","ơ"],["đ","ố"],["s","ét"],["T","E"],["Z","one"],["Tr","ấn"],["ti","ce"],["g","us"],["to","my"],["al","er"],["U","Y"],["Tr","úc"],["xo","áy"],["v","ác"],["A","ge"],["D","ong"],["th","à"],["r","ics"],["um","bs"],["la","zy"],["nh","ôm"],["be","y"],["br","is"],["end","a"],["T","ích"],["Ti","ết"],["C","ham"],["pp","le"],["fi","es"],["R","et"],["n","ano"],["is","er"],["H","ear"],["F","DA"],["H","ạn"],["R","ach"],["V","ốn"],["Hà","m"],["p","iss"],["su","ed"],["are","r"],["K","ý"],["R","ing"],["si","gh"],["dr","um"],["no","i"],["H","R"],["o","tic"],["he","el"],["tr","il"],["J","a"],["xu","a"],["r","as"],["l","ụa"],["t","ản"],["ng","ed"],["D","R"],["k","ẹp"],["al","lo"],["Ind","i"],["f","ung"],["Sy","l"],["H","ạt"],["C","ir"],["N","ash"],["ver","b"],["br","ac"],["b","ưởi"],["c","ows"],["đ","ờ"],["Bu","ck"],["D","ễ"],["h","ốt"],["mi","ên"],["cul","t"],["E","at"],["E","mi"],["pro","s"],["ak","u"],["C","ou"],["R","ex"],["mo","du"],["l","ind"],["kh","ốc"],["gi","ò"],["fr","ic"],["J","un"],["p","ent"],["le","en"],["ow","a"],["r","anh"],["me","tr"],["Th","áp"],["Ch","ết"],["O","K"],["r","ut"],["S","av"],["x","ịt"],["ti","vi"],["De","an"],["S","N"],["đ","àng"],["Th","ú"],["mi","e"],["use","t"],["Ni","ên"],["p","ene"],["ca","ch"],["Đ","áp"],["Kh","ám"],["Đ","ẹp"],["Ac","ti"],["p","tor"],["G","à"],["R","and"],["U","gh"],["Wi","ki"],["Sh","ar"],["tu","c"],["oid","s"],["H","um"],["kh","an"],["GP","U"],["P","in"],["C","ánh"],["g","ò"],["Un","it"],["B","ir"],["c","s"],["he","m"],["C","old"],["Ho","sp"],["H","P"],["se","ve"],["min","o"],["J","aco"],["fe","a"],["ep","s"],["п","g"],["de","ce"],["Tod","d"],["K","ate"],["li","ễu"],["pay","s"],["B","ến"],["G","row"],["h","ờ"],["PD","F"],["Ho","ạt"],["L","ẽ"],["F","low"],["Mo","ve"],["pop","s"],["b","ổn"],["i","re"],["ụ","n"],["bù","n"],["A","po"],["đ","ới"],["al","k"],["ul","us"],["ic","it"],["Egy","p"],["n","áo"],["B","éo"],["I","M"],["pl","er"],["z","zy"],["nh","óc"],["mo","ck"],["be","es"],["ca","ge"],["T","TO"],["st","i"],["Ph","y"],["ch","ói"],["NA","ME"],["N","ỗi"],["K","ei"],["Ch","ỗ"],["V","òng"],["d","ice"],["B","uy"],["ng","ấm"],["B","ear"],["t","ary"],["en","ni"],["Tr","ăm"],["Li","e"],["je","al"],["R","au"],["Đi","ển"],["C","lo"],["to","át"],["cer","t"],["g","àng"],["x","ao"],["t","ạng"],["ep","i"],["hi","er"],["B","ern"],["po","em"],["so","ap"],["U","tah"],["L","L"],["N","ear"],["el","le"],["B","ul"],["kh","ay"],["so","lo"],["A","gr"],["L","ot"],["Đ","ợi"],["re","je"],["od","ic"],["ff","s"],["d","ess"],["l","ass"],["r","ải"],["Z","en"],["col","s"],["c","ăm"],["Gu","an"],["m","its"],["re","o"],["F","ut"],["M","ãi"],["Ty","r"],["ki","e"],["ji","u"],["B","is"],["v","ẫy"],["st","um"],["M","ans"],["D","est"],["bar","a"],["j","ing"],["qu","ầy"],["W","ard"],["r","in"],["and","o"],["tor","n"],["cl","er"],["L","ớn"],["Tr","an"],["Bo","x"],["re","au"],["ho","ng"],["cal","o"],["ur","n"],["Nh","ị"],["NIC","K"],["B","ha"],["H","unt"],["ng","ậm"],["V","ùng"],["ri","ot"],["pre","h"],["Ar","k"],["C","anh"],["th","ét"],["de","ll"],["Are","a"],["Ju","d"],["bi","an"],["l","óc"],["E","mp"],["G","PS"],["V","ene"],["th","ê"],["D","ĩnh"],["k","ỉ"],["tr","èo"],["le","ng"]]}}